alignas(8) unsigned char model_tflite[] = {
	0x1c, 0x00, 0x00, 0x00, 0x54, 0x46, 0x4c, 0x33, 0x14, 0x00, 0x20, 0x00,
  0x04, 0x00, 0x08, 0x00, 0x0c, 0x00, 0x10, 0x00, 0x14, 0x00, 0x00, 0x00,
  0x18, 0x00, 0x1c, 0x00, 0x14, 0x00, 0x00, 0x00, 0x03, 0x00, 0x00, 0x00,
  0x18, 0x00, 0x00, 0x00, 0x20, 0x00, 0x00, 0x00, 0x40, 0x01, 0x00, 0x00,
  0x20, 0x00, 0x00, 0x00, 0xe8, 0x00, 0x00, 0x00, 0x64, 0x00, 0x00, 0x00,
  0x02, 0x00, 0x00, 0x00, 0xa0, 0x05, 0x00, 0x00, 0x1c, 0x02, 0x00, 0x00,
  0x01, 0x00, 0x00, 0x00, 0x44, 0x01, 0x00, 0x00, 0x12, 0x00, 0x00, 0x00,
  0x70, 0x2d, 0x00, 0x00, 0x6c, 0x2d, 0x00, 0x00, 0x80, 0x2c, 0x00, 0x00,
  0x68, 0x2b, 0x00, 0x00, 0x00, 0x2b, 0x00, 0x00, 0xa0, 0x17, 0x00, 0x00,
  0x7c, 0x0f, 0x00, 0x00, 0x58, 0x07, 0x00, 0x00, 0xdc, 0x06, 0x00, 0x00,
  0x74, 0x06, 0x00, 0x00, 0xf4, 0x05, 0x00, 0x00, 0x44, 0x2d, 0x00, 0x00,
  0x40, 0x2d, 0x00, 0x00, 0x3c, 0x2d, 0x00, 0x00, 0x38, 0x2d, 0x00, 0x00,
  0x34, 0x2d, 0x00, 0x00, 0x30, 0x2d, 0x00, 0x00, 0xb8, 0x00, 0x00, 0x00,
  0x01, 0x00, 0x00, 0x00, 0x10, 0x00, 0x00, 0x00, 0x00, 0x00, 0x0a, 0x00,
  0x10, 0x00, 0x0c, 0x00, 0x08, 0x00, 0x04, 0x00, 0x0a, 0x00, 0x00, 0x00,
  0x0c, 0x00, 0x00, 0x00, 0x1c, 0x00, 0x00, 0x00, 0x20, 0x00, 0x00, 0x00,
  0x0f, 0x00, 0x00, 0x00, 0x73, 0x65, 0x72, 0x76, 0x69, 0x6e, 0x67, 0x5f,
  0x64, 0x65, 0x66, 0x61, 0x75, 0x6c, 0x74, 0x00, 0x01, 0x00, 0x00, 0x00,
  0x14, 0x00, 0x00, 0x00, 0x01, 0x00, 0x00, 0x00, 0x24, 0x00, 0x00, 0x00,
  0x08, 0x00, 0x0c, 0x00, 0x08, 0x00, 0x04, 0x00, 0x08, 0x00, 0x00, 0x00,
  0x0f, 0x00, 0x00, 0x00, 0x04, 0x00, 0x00, 0x00, 0x07, 0x00, 0x00, 0x00,
  0x64, 0x65, 0x6e, 0x73, 0x65, 0x5f, 0x34, 0x00, 0x2e, 0xd4, 0xff, 0xff,
  0x04, 0x00, 0x00, 0x00, 0x0b, 0x00, 0x00, 0x00, 0x64, 0x65, 0x6e, 0x73,
  0x65, 0x5f, 0x69, 0x6e, 0x70, 0x75, 0x74, 0x00, 0x01, 0x00, 0x00, 0x00,
  0x0c, 0x00, 0x00, 0x00, 0x08, 0x00, 0x0c, 0x00, 0x04, 0x00, 0x08, 0x00,
  0x08, 0x00, 0x00, 0x00, 0x08, 0x00, 0x00, 0x00, 0x11, 0x00, 0x00, 0x00,
  0x13, 0x00, 0x00, 0x00, 0x6d, 0x69, 0x6e, 0x5f, 0x72, 0x75, 0x6e, 0x74,
  0x69, 0x6d, 0x65, 0x5f, 0x76, 0x65, 0x72, 0x73, 0x69, 0x6f, 0x6e, 0x00,
  0x7a, 0xd4, 0xff, 0xff, 0x04, 0x00, 0x00, 0x00, 0x10, 0x00, 0x00, 0x00,
  0x31, 0x2e, 0x35, 0x2e, 0x30, 0x00, 0x00, 0x00, 0x00, 0x00, 0x00, 0x00,
  0x00, 0x00, 0x00, 0x00, 0x0f, 0x00, 0x00, 0x00, 0x4d, 0x4c, 0x49, 0x52,
  0x20, 0x43, 0x6f, 0x6e, 0x76, 0x65, 0x72, 0x74, 0x65, 0x64, 0x2e, 0x00,
  0x00, 0x00, 0x0e, 0x00, 0x18, 0x00, 0x04, 0x00, 0x08, 0x00, 0x0c, 0x00,
  0x10, 0x00, 0x14, 0x00, 0x0e, 0x00, 0x00, 0x00, 0x14, 0x00, 0x00, 0x00,
  0x54, 0x00, 0x00, 0x00, 0x58, 0x00, 0x00, 0x00, 0x5c, 0x00, 0x00, 0x00,
  0x74, 0x00, 0x00, 0x00, 0x10, 0x00, 0x00, 0x00, 0xbc, 0x2b, 0x00, 0x00,
  0x70, 0x2b, 0x00, 0x00, 0xe8, 0x2a, 0x00, 0x00, 0xe0, 0x29, 0x00, 0x00,
  0x68, 0x29, 0x00, 0x00, 0x04, 0x16, 0x00, 0x00, 0xe0, 0x0d, 0x00, 0x00,
  0xbc, 0x05, 0x00, 0x00, 0x40, 0x05, 0x00, 0x00, 0xc0, 0x04, 0x00, 0x00,
  0x1c, 0x04, 0x00, 0x00, 0x28, 0x03, 0x00, 0x00, 0x58, 0x02, 0x00, 0x00,
  0xcc, 0x01, 0x00, 0x00, 0x10, 0x01, 0x00, 0x00, 0x88, 0x00, 0x00, 0x00,
  0x01, 0x00, 0x00, 0x00, 0x00, 0x00, 0x00, 0x00, 0x01, 0x00, 0x00, 0x00,
  0x0f, 0x00, 0x00, 0x00, 0x06, 0x00, 0x00, 0x00, 0x98, 0x03, 0x00, 0x00,
  0xc8, 0x02, 0x00, 0x00, 0xf8, 0x01, 0x00, 0x00, 0x70, 0x01, 0x00, 0x00,
  0xb4, 0x00, 0x00, 0x00, 0x1c, 0x00, 0x00, 0x00, 0x04, 0x00, 0x00, 0x00,
  0x6d, 0x61, 0x69, 0x6e, 0x00, 0x00, 0x0e, 0x00, 0x18, 0x00, 0x08, 0x00,
  0x0c, 0x00, 0x10, 0x00, 0x07, 0x00, 0x14, 0x00, 0x0e, 0x00, 0x00, 0x00,
  0x00, 0x00, 0x00, 0x09, 0x01, 0x00, 0x00, 0x00, 0x1c, 0x00, 0x00, 0x00,
  0x10, 0x00, 0x00, 0x00, 0x04, 0x00, 0x00, 0x00, 0x72, 0xd5, 0xff, 0xff,
  0x00, 0x00, 0x80, 0x3f, 0x01, 0x00, 0x00, 0x00, 0x0f, 0x00, 0x00, 0x00,
  0x01, 0x00, 0x00, 0x00, 0x0e, 0x00, 0x00, 0x00, 0x8c, 0xfc, 0xff, 0xff,
  0x19, 0x00, 0x00, 0x00, 0x00, 0x00, 0x00, 0x19, 0x01, 0x00, 0x00, 0x00,
  0x1c, 0xd5, 0xff, 0xff, 0x14, 0x00, 0x00, 0x00, 0x10, 0x00, 0x00, 0x00,
  0x18, 0x00, 0x00, 0x00, 0x40, 0x00, 0x00, 0x00, 0x30, 0x00, 0x00, 0x00,
  0x02, 0x00, 0x00, 0x00, 0x01, 0x00, 0x00, 0x00, 0x05, 0x00, 0x00, 0x00,
  0x19, 0x00, 0x00, 0x00, 0x53, 0x74, 0x61, 0x74, 0x65, 0x66, 0x75, 0x6c,
  0x50, 0x61, 0x72, 0x74, 0x69, 0x74, 0x69, 0x6f, 0x6e, 0x65, 0x64, 0x43,
  0x61, 0x6c, 0x6c, 0x3a, 0x30, 0x00, 0x00, 0x00, 0x02, 0x00, 0x00, 0x00,
  0xff, 0xff, 0xff, 0xff, 0x05, 0x00, 0x00, 0x00, 0x00, 0xd5, 0xff, 0xff,
  0x06, 0xfe, 0xff, 0xff, 0x00, 0x00, 0x00, 0x08, 0x18, 0x00, 0x00, 0x00,
  0x0c, 0x00, 0x00, 0x00, 0x04, 0x00, 0x00, 0x00, 0x18, 0xd5, 0xff, 0xff,
  0x01, 0x00, 0x00, 0x00, 0x0e, 0x00, 0x00, 0x00, 0x03, 0x00, 0x00, 0x00,
  0x0d, 0x00, 0x00, 0x00, 0x08, 0x00, 0x00, 0x00, 0x09, 0x00, 0x00, 0x00,
  0xa0, 0xd5, 0xff, 0xff, 0x14, 0x00, 0x00, 0x00, 0x0f, 0x00, 0x00, 0x00,
  0x18, 0x00, 0x00, 0x00, 0x74, 0x00, 0x00, 0x00, 0x64, 0x00, 0x00, 0x00,
  0x02, 0x00, 0x00, 0x00, 0x01, 0x00, 0x00, 0x00, 0x05, 0x00, 0x00, 0x00,
  0x4f, 0x00, 0x00, 0x00, 0x73, 0x65, 0x71, 0x75, 0x65, 0x6e, 0x74, 0x69,
  0x61, 0x6c, 0x2f, 0x64, 0x65, 0x6e, 0x73, 0x65, 0x5f, 0x33, 0x2f, 0x42,
  0x69, 0x61, 0x73, 0x41, 0x64, 0x64, 0x3b, 0x73, 0x65, 0x71, 0x75, 0x65,
  0x6e, 0x74, 0x69, 0x61, 0x6c, 0x2f, 0x64, 0x65, 0x6e, 0x73, 0x65, 0x5f,
  0x34, 0x2f, 0x4d, 0x61, 0x74, 0x4d, 0x75, 0x6c, 0x3b, 0x73, 0x65, 0x71,
  0x75, 0x65, 0x6e, 0x74, 0x69, 0x61, 0x6c, 0x2f, 0x64, 0x65, 0x6e, 0x73,
  0x65, 0x5f, 0x34, 0x2f, 0x42, 0x69, 0x61, 0x73, 0x41, 0x64, 0x64, 0x00,
  0x02, 0x00, 0x00, 0x00, 0xff, 0xff, 0xff, 0xff, 0x05, 0x00, 0x00, 0x00,
  0xb8, 0xd5, 0xff, 0xff, 0xbe, 0xfe, 0xff, 0xff, 0x00, 0x00, 0x00, 0x08,
  0x18, 0x00, 0x00, 0x00, 0x0c, 0x00, 0x00, 0x00, 0x04, 0x00, 0x00, 0x00,
  0xd0, 0xd5, 0xff, 0xff, 0x01, 0x00, 0x00, 0x00, 0x0d, 0x00, 0x00, 0x00,
  0x03, 0x00, 0x00, 0x00, 0x0c, 0x00, 0x00, 0x00, 0x07, 0x00, 0x00, 0x00,
  0xff, 0xff, 0xff, 0xff, 0x58, 0xd6, 0xff, 0xff, 0x14, 0x00, 0x00, 0x00,
  0x0e, 0x00, 0x00, 0x00, 0x18, 0x00, 0x00, 0x00, 0x40, 0x00, 0x00, 0x00,
  0x30, 0x00, 0x00, 0x00, 0x02, 0x00, 0x00, 0x00, 0x01, 0x00, 0x00, 0x00,
  0x01, 0x00, 0x00, 0x00, 0x1a, 0x00, 0x00, 0x00, 0x73, 0x65, 0x71, 0x75,
  0x65, 0x6e, 0x74, 0x69, 0x61, 0x6c, 0x2f, 0x64, 0x65, 0x6e, 0x73, 0x65,
  0x5f, 0x33, 0x2f, 0x4d, 0x61, 0x74, 0x4d, 0x75, 0x6c, 0x31, 0x00, 0x00,
  0x02, 0x00, 0x00, 0x00, 0xff, 0xff, 0xff, 0xff, 0x01, 0x00, 0x00, 0x00,
  0x3c, 0xd6, 0xff, 0xff, 0x42, 0xff, 0xff, 0xff, 0x00, 0x00, 0x00, 0x08,
  0x1c, 0x00, 0x00, 0x00, 0x10, 0x00, 0x00, 0x00, 0x04, 0x00, 0x00, 0x00,
  0x66, 0xfe, 0xff, 0xff, 0x00, 0x00, 0x00, 0x01, 0x01, 0x00, 0x00, 0x00,
  0x0c, 0x00, 0x00, 0x00, 0x03, 0x00, 0x00, 0x00, 0x0b, 0x00, 0x00, 0x00,
  0x06, 0x00, 0x00, 0x00, 0x01, 0x00, 0x00, 0x00, 0xe0, 0xd6, 0xff, 0xff,
  0x14, 0x00, 0x00, 0x00, 0x0d, 0x00, 0x00, 0x00, 0x18, 0x00, 0x00, 0x00,
  0x74, 0x00, 0x00, 0x00, 0x64, 0x00, 0x00, 0x00, 0x02, 0x00, 0x00, 0x00,
  0x01, 0x00, 0x00, 0x00, 0x0a, 0x00, 0x00, 0x00, 0x4c, 0x00, 0x00, 0x00,
  0x73, 0x65, 0x71, 0x75, 0x65, 0x6e, 0x74, 0x69, 0x61, 0x6c, 0x2f, 0x64,
  0x65, 0x6e, 0x73, 0x65, 0x5f, 0x32, 0x2f, 0x4d, 0x61, 0x74, 0x4d, 0x75,
  0x6c, 0x3b, 0x73, 0x65, 0x71, 0x75, 0x65, 0x6e, 0x74, 0x69, 0x61, 0x6c,
  0x2f, 0x64, 0x65, 0x6e, 0x73, 0x65, 0x5f, 0x32, 0x2f, 0x52, 0x65, 0x6c,
  0x75, 0x3b, 0x73, 0x65, 0x71, 0x75, 0x65, 0x6e, 0x74, 0x69, 0x61, 0x6c,
  0x2f, 0x64, 0x65, 0x6e, 0x73, 0x65, 0x5f, 0x32, 0x2f, 0x42, 0x69, 0x61,
  0x73, 0x41, 0x64, 0x64, 0x00, 0x00, 0x00, 0x00, 0x02, 0x00, 0x00, 0x00,
  0xff, 0xff, 0xff, 0xff, 0x0a, 0x00, 0x00, 0x00, 0xec, 0xd7, 0xff, 0xff,
  0x00, 0x00, 0x0e, 0x00, 0x14, 0x00, 0x00, 0x00, 0x08, 0x00, 0x0c, 0x00,
  0x07, 0x00, 0x10, 0x00, 0x0e, 0x00, 0x00, 0x00, 0x00, 0x00, 0x00, 0x08,
  0x1c, 0x00, 0x00, 0x00, 0x10, 0x00, 0x00, 0x00, 0x04, 0x00, 0x00, 0x00,
  0x32, 0xff, 0xff, 0xff, 0x00, 0x00, 0x00, 0x01, 0x01, 0x00, 0x00, 0x00,
  0x0b, 0x00, 0x00, 0x00, 0x03, 0x00, 0x00, 0x00, 0x0a, 0x00, 0x00, 0x00,
  0x05, 0x00, 0x00, 0x00, 0x02, 0x00, 0x00, 0x00, 0xac, 0xd7, 0xff, 0xff,
  0x14, 0x00, 0x00, 0x00, 0x0c, 0x00, 0x00, 0x00, 0x18, 0x00, 0x00, 0x00,
  0x74, 0x00, 0x00, 0x00, 0x64, 0x00, 0x00, 0x00, 0x02, 0x00, 0x00, 0x00,
  0x01, 0x00, 0x00, 0x00, 0x32, 0x00, 0x00, 0x00, 0x4c, 0x00, 0x00, 0x00,
  0x73, 0x65, 0x71, 0x75, 0x65, 0x6e, 0x74, 0x69, 0x61, 0x6c, 0x2f, 0x64,
  0x65, 0x6e, 0x73, 0x65, 0x5f, 0x31, 0x2f, 0x4d, 0x61, 0x74, 0x4d, 0x75,
  0x6c, 0x3b, 0x73, 0x65, 0x71, 0x75, 0x65, 0x6e, 0x74, 0x69, 0x61, 0x6c,
  0x2f, 0x64, 0x65, 0x6e, 0x73, 0x65, 0x5f, 0x31, 0x2f, 0x52, 0x65, 0x6c,
  0x75, 0x3b, 0x73, 0x65, 0x71, 0x75, 0x65, 0x6e, 0x74, 0x69, 0x61, 0x6c,
  0x2f, 0x64, 0x65, 0x6e, 0x73, 0x65, 0x5f, 0x31, 0x2f, 0x42, 0x69, 0x61,
  0x73, 0x41, 0x64, 0x64, 0x00, 0x00, 0x00, 0x00, 0x02, 0x00, 0x00, 0x00,
  0xff, 0xff, 0xff, 0xff, 0x32, 0x00, 0x00, 0x00, 0xb8, 0xd8, 0xff, 0xff,
  0x00, 0x00, 0x0e, 0x00, 0x16, 0x00, 0x00, 0x00, 0x08, 0x00, 0x0c, 0x00,
  0x07, 0x00, 0x10, 0x00, 0x0e, 0x00, 0x00, 0x00, 0x00, 0x00, 0x00, 0x08,
  0x24, 0x00, 0x00, 0x00, 0x18, 0x00, 0x00, 0x00, 0x0c, 0x00, 0x00, 0x00,
  0x00, 0x00, 0x06, 0x00, 0x08, 0x00, 0x07, 0x00, 0x06, 0x00, 0x00, 0x00,
  0x00, 0x00, 0x00, 0x01, 0x01, 0x00, 0x00, 0x00, 0x0a, 0x00, 0x00, 0x00,
  0x03, 0x00, 0x00, 0x00, 0x00, 0x00, 0x00, 0x00, 0x04, 0x00, 0x00, 0x00,
  0x03, 0x00, 0x00, 0x00, 0x0c, 0x00, 0x10, 0x00, 0x0b, 0x00, 0x00, 0x00,
  0x0c, 0x00, 0x04, 0x00, 0x0c, 0x00, 0x00, 0x00, 0x09, 0x00, 0x00, 0x00,
  0x00, 0x00, 0x00, 0x09, 0x01, 0x00, 0x00, 0x00, 0x9c, 0xd8, 0xff, 0xff,
  0x14, 0x00, 0x00, 0x00, 0x0b, 0x00, 0x00, 0x00, 0x18, 0x00, 0x00, 0x00,
  0x6c, 0x00, 0x00, 0x00, 0x5c, 0x00, 0x00, 0x00, 0x02, 0x00, 0x00, 0x00,
  0x01, 0x00, 0x00, 0x00, 0x0a, 0x00, 0x00, 0x00, 0x46, 0x00, 0x00, 0x00,
  0x73, 0x65, 0x71, 0x75, 0x65, 0x6e, 0x74, 0x69, 0x61, 0x6c, 0x2f, 0x64,
  0x65, 0x6e, 0x73, 0x65, 0x2f, 0x4d, 0x61, 0x74, 0x4d, 0x75, 0x6c, 0x3b,
  0x73, 0x65, 0x71, 0x75, 0x65, 0x6e, 0x74, 0x69, 0x61, 0x6c, 0x2f, 0x64,
  0x65, 0x6e, 0x73, 0x65, 0x2f, 0x52, 0x65, 0x6c, 0x75, 0x3b, 0x73, 0x65,
  0x71, 0x75, 0x65, 0x6e, 0x74, 0x69, 0x61, 0x6c, 0x2f, 0x64, 0x65, 0x6e,
  0x73, 0x65, 0x2f, 0x42, 0x69, 0x61, 0x73, 0x41, 0x64, 0x64, 0x00, 0x00,
  0x02, 0x00, 0x00, 0x00, 0xff, 0xff, 0xff, 0xff, 0x0a, 0x00, 0x00, 0x00,
  0xac, 0xd8, 0xff, 0xff, 0x9a, 0xd9, 0xff, 0xff, 0x04, 0x00, 0x00, 0x00,
  0x14, 0x00, 0x00, 0x00, 0x08, 0xd2, 0x97, 0x40, 0xe7, 0x5b, 0x38, 0xc0,
  0x64, 0x91, 0x99, 0xbe, 0xc5, 0xdb, 0x81, 0xbf, 0xe7, 0x92, 0x90, 0xc0,
  0x7e, 0xd9, 0xff, 0xff, 0x10, 0x00, 0x00, 0x00, 0x0a, 0x00, 0x00, 0x00,
  0x10, 0x00, 0x00, 0x00, 0x48, 0x00, 0x00, 0x00, 0x01, 0x00, 0x00, 0x00,
  0x05, 0x00, 0x00, 0x00, 0x34, 0x00, 0x00, 0x00, 0x73, 0x65, 0x71, 0x75,
  0x65, 0x6e, 0x74, 0x69, 0x61, 0x6c, 0x2f, 0x64, 0x65, 0x6e, 0x73, 0x65,
  0x5f, 0x34, 0x2f, 0x4d, 0x61, 0x74, 0x4d, 0x75, 0x6c, 0x3b, 0x73, 0x65,
  0x71, 0x75, 0x65, 0x6e, 0x74, 0x69, 0x61, 0x6c, 0x2f, 0x64, 0x65, 0x6e,
  0x73, 0x65, 0x5f, 0x34, 0x2f, 0x42, 0x69, 0x61, 0x73, 0x41, 0x64, 0x64,
  0x00, 0x00, 0x00, 0x00, 0x28, 0xd9, 0xff, 0xff, 0x16, 0xda, 0xff, 0xff,
  0x04, 0x00, 0x00, 0x00, 0x14, 0x00, 0x00, 0x00, 0x56, 0x92, 0x82, 0xbf,
  0xec, 0xb3, 0x8a, 0x3f, 0x8c, 0x54, 0xe0, 0xbf, 0xe7, 0x1d, 0x0b, 0x3f,
  0x7c, 0x62, 0x26, 0x3f, 0xfa, 0xd9, 0xff, 0xff, 0x10, 0x00, 0x00, 0x00,
  0x09, 0x00, 0x00, 0x00, 0x14, 0x00, 0x00, 0x00, 0x30, 0x00, 0x00, 0x00,
  0x02, 0x00, 0x00, 0x00, 0x05, 0x00, 0x00, 0x00, 0x01, 0x00, 0x00, 0x00,
  0x19, 0x00, 0x00, 0x00, 0x73, 0x65, 0x71, 0x75, 0x65, 0x6e, 0x74, 0x69,
  0x61, 0x6c, 0x2f, 0x64, 0x65, 0x6e, 0x73, 0x65, 0x5f, 0x34, 0x2f, 0x4d,
  0x61, 0x74, 0x4d, 0x75, 0x6c, 0x00, 0x00, 0x00, 0x8c, 0xd9, 0xff, 0xff,
  0x7a, 0xda, 0xff, 0xff, 0x04, 0x00, 0x00, 0x00, 0x28, 0x00, 0x00, 0x00,
  0x57, 0x5c, 0x0f, 0x3f, 0xdf, 0xf6, 0x41, 0x3f, 0x8f, 0x0a, 0xaa, 0xbd,
  0x3b, 0x62, 0x2e, 0x3f, 0x87, 0x2b, 0xfe, 0x3e, 0x19, 0x77, 0xb7, 0xbf,
  0x25, 0x3f, 0x0d, 0x3f, 0x5f, 0x98, 0xa0, 0xbf, 0x54, 0x06, 0xab, 0xbf,
  0xc1, 0xba, 0x18, 0x3f, 0x72, 0xda, 0xff, 0xff, 0x10, 0x00, 0x00, 0x00,
  0x08, 0x00, 0x00, 0x00, 0x14, 0x00, 0x00, 0x00, 0x30, 0x00, 0x00, 0x00,
  0x02, 0x00, 0x00, 0x00, 0x01, 0x00, 0x00, 0x00, 0x0a, 0x00, 0x00, 0x00,
  0x19, 0x00, 0x00, 0x00, 0x73, 0x65, 0x71, 0x75, 0x65, 0x6e, 0x74, 0x69,
  0x61, 0x6c, 0x2f, 0x64, 0x65, 0x6e, 0x73, 0x65, 0x5f, 0x33, 0x2f, 0x4d,
  0x61, 0x74, 0x4d, 0x75, 0x6c, 0x00, 0x00, 0x00, 0x04, 0xda, 0xff, 0xff,
  0xf2, 0xda, 0xff, 0xff, 0x04, 0x00, 0x00, 0x00, 0xd0, 0x07, 0x00, 0x00,
  0x0d, 0xc3, 0xe9, 0x3e, 0xf9, 0xe6, 0x57, 0xbf, 0x01, 0x46, 0xb0, 0x3e,
  0x1e, 0x79, 0x2d, 0xc0, 0x28, 0x61, 0x88, 0x3e, 0x51, 0x2c, 0x56, 0xbf,
  0x9d, 0x88, 0x8e, 0x3e, 0x90, 0x2b, 0x1e, 0x3e, 0x9f, 0x7c, 0x09, 0x3f,
  0x4a, 0xdc, 0xd7, 0x3e, 0x1d, 0x51, 0x37, 0xbf, 0x8c, 0xa0, 0xd1, 0x3e,
  0xdb, 0x7a, 0x46, 0xbf, 0x74, 0x56, 0xb7, 0x3e, 0xde, 0x83, 0x41, 0xbe,
  0x4e, 0xae, 0xf6, 0xbf, 0x94, 0x09, 0x37, 0x3e, 0x69, 0x0b, 0x58, 0x3f,
  0xa5, 0x33, 0x93, 0xbb, 0xe2, 0xc9, 0xa6, 0xbe, 0xe5, 0xaf, 0xa8, 0x3e,
  0x57, 0x1f, 0x15, 0xbe, 0x80, 0x43, 0x91, 0xbf, 0x1a, 0x40, 0x12, 0xbc,
  0xb6, 0x25, 0x12, 0x3f, 0xea, 0x69, 0x04, 0xbf, 0x36, 0x57, 0x87, 0x3e,
  0xa4, 0xce, 0x05, 0x3f, 0x35, 0xc7, 0x5e, 0x3f, 0x17, 0xc6, 0x85, 0x3f,
  0xa9, 0x83, 0x5a, 0x3e, 0x83, 0x89, 0x4a, 0x3f, 0x18, 0x99, 0xf9, 0x3e,
  0xd9, 0x1b, 0xc9, 0xbc, 0xb8, 0x83, 0x8a, 0x3e, 0x48, 0xcd, 0xd5, 0x3e,
  0x06, 0x08, 0xf7, 0x3e, 0xfb, 0x0b, 0x98, 0xbf, 0x33, 0x42, 0x8b, 0x3d,
  0x8d, 0xcb, 0xf0, 0x3d, 0xf0, 0x53, 0xc3, 0x3e, 0x44, 0x3e, 0x84, 0x3e,
  0x5b, 0xda, 0xb4, 0xbd, 0x98, 0x9c, 0xb2, 0xbe, 0x5d, 0x2d, 0xd1, 0x3d,
  0xa4, 0x07, 0x1c, 0xbd, 0x61, 0x1c, 0xf7, 0x3e, 0x83, 0x06, 0xff, 0x3e,
  0xc7, 0x2f, 0x95, 0x3e, 0xc9, 0x88, 0xed, 0x3e, 0xce, 0x80, 0xd9, 0x3e,
  0xc4, 0x91, 0x7d, 0xbf, 0x21, 0x14, 0xb3, 0x3e, 0x2a, 0xb3, 0x87, 0xc0,
  0xf6, 0x69, 0xbc, 0x3c, 0x39, 0x63, 0x3f, 0xbf, 0x86, 0x78, 0x21, 0x3f,
  0xce, 0xc5, 0xb7, 0x3d, 0x69, 0xd6, 0xe4, 0x3e, 0x7b, 0xf8, 0x0e, 0x3f,
  0xb6, 0x7e, 0x6b, 0xbe, 0xc2, 0x13, 0x33, 0x3e, 0xb6, 0x3f, 0x21, 0xbf,
  0x64, 0x5a, 0xda, 0xbc, 0x55, 0xb4, 0xbb, 0x3e, 0xf8, 0x0d, 0x8c, 0xbf,
  0xf5, 0x4e, 0x37, 0xbe, 0xb9, 0xc8, 0x8a, 0x3f, 0x60, 0x97, 0xea, 0x3d,
  0x2a, 0x5b, 0x8b, 0x3e, 0x25, 0x4b, 0x3a, 0x3f, 0x42, 0xad, 0x88, 0xbe,
  0x1d, 0x2e, 0x8b, 0xbf, 0xb4, 0x3e, 0x0b, 0x3e, 0x7c, 0x5d, 0x1f, 0x3d,
  0xba, 0x5e, 0x02, 0x3e, 0x4b, 0x46, 0x24, 0x3e, 0xcb, 0x77, 0x7c, 0xbc,
  0x41, 0xb8, 0x60, 0x3f, 0x9b, 0x61, 0x03, 0x3f, 0x44, 0xe3, 0x03, 0xbd,
  0xb8, 0x19, 0x88, 0x3f, 0x93, 0x07, 0x22, 0x3c, 0x84, 0x60, 0x4b, 0xbe,
  0x16, 0x0c, 0xa8, 0xbd, 0x4b, 0x39, 0xdb, 0x3e, 0x9c, 0x2b, 0x1c, 0x3f,
  0x51, 0xf5, 0x7a, 0xbf, 0x33, 0x0d, 0x6a, 0xbe, 0x47, 0x00, 0xf9, 0x3e,
  0x07, 0xd3, 0xd5, 0xbb, 0x08, 0xc3, 0x7e, 0xbe, 0x3c, 0xfb, 0xec, 0xbd,
  0x3e, 0x70, 0xc1, 0xbe, 0x28, 0xb4, 0xb1, 0x3e, 0x5f, 0xbe, 0x8b, 0x3e,
  0x92, 0x4b, 0xcd, 0x3e, 0xa9, 0x4d, 0xdc, 0x3d, 0x0a, 0xf0, 0x9c, 0x3e,
  0x02, 0x9d, 0x96, 0x3e, 0xf8, 0xe4, 0x37, 0xbe, 0x87, 0x8f, 0x84, 0xbe,
  0x35, 0x5e, 0x94, 0xbe, 0x49, 0x4a, 0x8b, 0x3d, 0x95, 0xa5, 0x97, 0xbe,
  0xd1, 0x4b, 0x99, 0x3e, 0xf4, 0x63, 0x08, 0xbe, 0xb7, 0xac, 0x85, 0xbe,
  0x96, 0x2e, 0x8f, 0xbe, 0x46, 0x80, 0x90, 0x3e, 0x8c, 0x3b, 0x8f, 0xbe,
  0xae, 0x65, 0x98, 0x3d, 0x2a, 0xda, 0x78, 0x3e, 0x70, 0xdf, 0xe9, 0xba,
  0xa0, 0xcc, 0x99, 0x3d, 0x04, 0x97, 0x9a, 0xbe, 0x60, 0x56, 0xb8, 0xbd,
  0xc2, 0xef, 0x9b, 0xbe, 0x8c, 0xcb, 0x0f, 0xbe, 0x52, 0x71, 0xb0, 0xbc,
  0x8f, 0x0c, 0x26, 0x3e, 0x94, 0xcd, 0x34, 0xbd, 0x89, 0x0a, 0x69, 0x3e,
  0xba, 0xc1, 0x2a, 0xbe, 0x54, 0x49, 0x14, 0xbe, 0x63, 0x27, 0xfc, 0xbd,
  0xc6, 0x83, 0x73, 0x3e, 0x6b, 0x66, 0x0f, 0x3e, 0x02, 0x63, 0x8e, 0x3e,
  0xb7, 0x24, 0x51, 0x3d, 0x91, 0x13, 0xc3, 0x3d, 0x84, 0x80, 0xa5, 0xbe,
  0x91, 0x84, 0xbf, 0xbd, 0x53, 0xba, 0x88, 0x3e, 0x6d, 0xb0, 0xa4, 0x3d,
  0x1e, 0x61, 0x9a, 0xbe, 0xe8, 0xf4, 0xf4, 0x3d, 0xad, 0x5a, 0xee, 0xbd,
  0xc8, 0x10, 0x84, 0xbe, 0xc1, 0xcf, 0x84, 0x3e, 0x90, 0xff, 0x20, 0xbe,
  0x31, 0x91, 0xe2, 0xbd, 0x21, 0xf7, 0xa4, 0xbe, 0xed, 0x73, 0x2a, 0xbe,
  0xee, 0xbb, 0xa7, 0x3d, 0x27, 0xda, 0x7f, 0x3e, 0xaf, 0xdb, 0x67, 0xbd,
  0x63, 0xaf, 0x95, 0x3e, 0x97, 0x1b, 0x2d, 0xbe, 0x22, 0xe4, 0xa6, 0x3d,
  0x93, 0xdc, 0x92, 0x3d, 0xa4, 0xd7, 0x8b, 0xbf, 0xb0, 0x48, 0x50, 0xbd,
  0xd5, 0x75, 0x68, 0xc0, 0x8e, 0xd1, 0x15, 0xbe, 0x65, 0x4c, 0x91, 0xbf,
  0xc4, 0x75, 0x20, 0x3f, 0x28, 0xea, 0x4f, 0xbe, 0x94, 0x7e, 0xe5, 0x3e,
  0x23, 0x8a, 0xed, 0x3e, 0x57, 0xc9, 0x85, 0xbe, 0xcc, 0x14, 0xcb, 0xbd,
  0x01, 0x1e, 0x46, 0xbf, 0x8f, 0x3e, 0xd3, 0xbd, 0x05, 0xa2, 0xa6, 0x3d,
  0xa1, 0x60, 0xbe, 0xbf, 0x33, 0xab, 0xba, 0xbd, 0xd1, 0x1c, 0x79, 0x3f,
  0x85, 0x34, 0x26, 0xbd, 0x97, 0x04, 0x9c, 0x3d, 0xbb, 0x6c, 0x37, 0x3e,
  0x85, 0x56, 0xd1, 0xbd, 0x05, 0xc5, 0xaf, 0xbf, 0xbc, 0x15, 0x86, 0x3d,
  0xbe, 0x1b, 0x1a, 0x3f, 0x7e, 0x15, 0x0c, 0xbf, 0x35, 0x01, 0x5f, 0x3e,
  0x5a, 0x4c, 0xe6, 0x3e, 0xec, 0xf7, 0x9c, 0x3f, 0x73, 0x3e, 0x26, 0x3f,
  0x47, 0x1a, 0xa5, 0x3c, 0xaa, 0xce, 0x55, 0x3f, 0x43, 0x52, 0x46, 0x3e,
  0x26, 0xe7, 0x6d, 0xbe, 0x21, 0x55, 0x9d, 0x3d, 0x2a, 0x4d, 0xc1, 0xbd,
  0xf7, 0x62, 0xfe, 0x3e, 0x48, 0x35, 0x82, 0xbf, 0x99, 0xef, 0xe0, 0x3d,
  0x1f, 0xdb, 0x05, 0x3f, 0xdc, 0x2c, 0x3b, 0x3e, 0x3f, 0x44, 0x32, 0xbe,
  0x40, 0x51, 0x66, 0xbd, 0x01, 0xbc, 0x01, 0xbf, 0x2a, 0x39, 0x4f, 0x3e,
  0x19, 0xf1, 0xae, 0x3e, 0x9e, 0xbb, 0xc3, 0x3e, 0x6b, 0x0f, 0x99, 0xbd,
  0x2d, 0x23, 0x87, 0x3d, 0x6f, 0xe4, 0x21, 0x3f, 0xff, 0x39, 0x75, 0x3e,
  0x91, 0xda, 0x70, 0xbf, 0x33, 0xe1, 0x99, 0xbc, 0xb6, 0x2f, 0x66, 0xc0,
  0x4e, 0x54, 0xb5, 0xbe, 0x74, 0x1c, 0x4c, 0xbf, 0x43, 0x14, 0x8e, 0x3e,
  0x9d, 0xef, 0xec, 0x3d, 0xf0, 0x03, 0x82, 0x3e, 0x25, 0x01, 0x1c, 0x3f,
  0x8c, 0xb2, 0x7a, 0xbe, 0x87, 0xf9, 0xdd, 0x3e, 0x12, 0x17, 0x27, 0xbf,
  0x8e, 0xa5, 0x69, 0xbe, 0x38, 0x1e, 0x7b, 0x3e, 0xca, 0x5e, 0xa6, 0xbf,
  0xcf, 0x2d, 0x0a, 0x3d, 0x3b, 0xdc, 0x58, 0x3f, 0x38, 0x42, 0xc4, 0x3c,
  0x87, 0x1b, 0x16, 0x3e, 0xd0, 0x14, 0xbf, 0x3d, 0x16, 0x5f, 0x43, 0x3e,
  0xb6, 0x08, 0x76, 0xbf, 0xbb, 0xb3, 0x72, 0x3e, 0x59, 0x28, 0x89, 0x3e,
  0x13, 0xab, 0x13, 0xbe, 0x6d, 0xd5, 0x93, 0xbe, 0x06, 0x9b, 0xb0, 0x3d,
  0xca, 0x4b, 0x51, 0x3f, 0x89, 0xdf, 0x42, 0x3f, 0xab, 0x91, 0xe3, 0x3d,
  0x61, 0xae, 0xff, 0x3e, 0x7e, 0x4a, 0x3d, 0x3e, 0xea, 0x03, 0x9d, 0x3e,
  0xc0, 0x91, 0x3e, 0x3e, 0xa2, 0x2d, 0x89, 0xbd, 0xbb, 0x02, 0xa9, 0x3d,
  0x42, 0x58, 0x68, 0xbf, 0xac, 0x1d, 0xae, 0xbe, 0xd3, 0x7f, 0x07, 0x3f,
  0x5a, 0x4c, 0x09, 0x3f, 0x73, 0x01, 0xaa, 0xbe, 0x59, 0x64, 0x2b, 0x3e,
  0x1f, 0x7c, 0xee, 0xbe, 0x03, 0x86, 0x66, 0x3e, 0xd1, 0x3c, 0x8d, 0x3e,
  0xef, 0x21, 0xb8, 0x3e, 0x06, 0x43, 0x85, 0x3e, 0xb3, 0x96, 0x00, 0xbe,
  0x8a, 0xb5, 0xf6, 0x3e, 0x6d, 0xf6, 0xe0, 0x3d, 0xfb, 0xef, 0xa4, 0x3f,
  0x29, 0xf6, 0xf3, 0x3c, 0xf2, 0x78, 0x89, 0x40, 0x5a, 0x92, 0x20, 0xbe,
  0x9f, 0x01, 0xb9, 0x3f, 0x82, 0xd0, 0x5b, 0x3d, 0x82, 0xbc, 0xb7, 0xbe,
  0x9c, 0x88, 0x72, 0x3e, 0xf9, 0x1b, 0x94, 0x3d, 0xa8, 0xd1, 0xa1, 0x3f,
  0xca, 0x7d, 0x31, 0x3e, 0xd7, 0xbd, 0x94, 0x3f, 0x9b, 0x3c, 0x9b, 0xbe,
  0xd4, 0x2a, 0xde, 0x3d, 0x82, 0x94, 0x5c, 0xc0, 0xf1, 0x18, 0x16, 0xbf,
  0x63, 0x31, 0x05, 0xbf, 0xbe, 0xd3, 0x2e, 0xbe, 0xfe, 0x6c, 0x1a, 0xbf,
  0x56, 0x6e, 0x23, 0xbf, 0x57, 0x8f, 0x4f, 0xbf, 0x9f, 0xa6, 0xcc, 0x3f,
  0xe9, 0xda, 0x9a, 0x3e, 0x9d, 0xeb, 0xb3, 0x3e, 0x14, 0xf9, 0x89, 0x3f,
  0x0c, 0xbe, 0x8b, 0x3e, 0x03, 0x1f, 0xfd, 0xbc, 0x02, 0x55, 0x06, 0x3f,
  0x13, 0xb2, 0x39, 0xbf, 0x1b, 0x80, 0x30, 0x3d, 0xba, 0x42, 0xa9, 0xbd,
  0xcf, 0x5e, 0x41, 0xbe, 0xee, 0xfb, 0x04, 0xbf, 0xdd, 0xb2, 0xb4, 0xbe,
  0x6c, 0xee, 0x44, 0xbf, 0x55, 0x52, 0x46, 0xbf, 0x49, 0x84, 0x93, 0x3f,
  0xfb, 0x49, 0x80, 0xbf, 0x91, 0x1a, 0x10, 0xbf, 0x71, 0xf7, 0xeb, 0xbf,
  0x15, 0xda, 0x39, 0xbe, 0x6a, 0xf1, 0x5c, 0xbf, 0x1c, 0x34, 0x5d, 0x3f,
  0x1e, 0x6e, 0xf3, 0xbf, 0xcb, 0xae, 0x47, 0x3e, 0x9e, 0x7c, 0x25, 0x3e,
  0x36, 0x71, 0xee, 0x3d, 0x9c, 0x40, 0x9d, 0xbf, 0x6d, 0x82, 0x5c, 0xbc,
  0x9a, 0x5f, 0x82, 0x3e, 0x04, 0x9e, 0x63, 0xbf, 0x3f, 0x4c, 0x52, 0x3e,
  0x5b, 0xcb, 0x30, 0xc0, 0x1c, 0x62, 0xcf, 0xbc, 0x61, 0x0b, 0x86, 0xbf,
  0xa5, 0x34, 0x91, 0x3e, 0x10, 0x55, 0xc7, 0xbe, 0x10, 0x2f, 0x1f, 0x3f,
  0x40, 0xc9, 0x41, 0x3f, 0x63, 0x81, 0x75, 0xbe, 0x77, 0xc3, 0xde, 0x3e,
  0x68, 0xd3, 0x4d, 0xbf, 0xd1, 0x66, 0x94, 0x3e, 0x90, 0x75, 0x01, 0x3e,
  0x5e, 0x65, 0xed, 0xbf, 0x44, 0x82, 0x20, 0xbe, 0x21, 0x4b, 0x85, 0x3f,
  0x4e, 0x98, 0xec, 0x3d, 0x7d, 0x9c, 0x52, 0x3e, 0x1c, 0x3c, 0xea, 0x3e,
  0xda, 0x71, 0x3a, 0x3e, 0x12, 0xaa, 0xa5, 0xbf, 0x4f, 0xba, 0x29, 0x3e,
  0xa6, 0x23, 0xd6, 0x3e, 0x55, 0x7e, 0xb9, 0xbe, 0x8f, 0x10, 0x9d, 0xbd,
  0x82, 0xe4, 0xf9, 0x3e, 0x4a, 0x93, 0xa0, 0x3f, 0x29, 0xec, 0x5f, 0x3f,
  0x2e, 0x1f, 0xb9, 0x3d, 0x8d, 0xb6, 0x72, 0x3f, 0x7e, 0x9e, 0xb4, 0x3e,
  0x96, 0x50, 0xdd, 0xbd, 0x39, 0x2b, 0xf0, 0x3d, 0xd7, 0xf0, 0x44, 0x3f,
  0x7a, 0x35, 0x05, 0x3f, 0x80, 0x24, 0x67, 0xbf, 0x11, 0xae, 0x2b, 0xbe,
  0xd3, 0x84, 0xe4, 0x3d, 0x94, 0xb3, 0x4b, 0x3f, 0x26, 0x56, 0x78, 0x3e,
  0xf7, 0x15, 0xe3, 0xbd, 0x81, 0xf8, 0x1b, 0xbf, 0x63, 0xbc, 0xf1, 0x3e,
  0xd8, 0xb2, 0xe1, 0x3e, 0x1a, 0xeb, 0xdd, 0x3e, 0x0a, 0x87, 0x83, 0x3e,
  0x61, 0xca, 0x55, 0x3e, 0x6e, 0xb6, 0xe4, 0x3e, 0xf2, 0x96, 0x2a, 0x3f,
  0xa1, 0x9c, 0x7d, 0x3f, 0xb8, 0x6a, 0x90, 0xbf, 0x6e, 0x1e, 0x63, 0x40,
  0xcf, 0x30, 0x7e, 0xbf, 0x68, 0xb6, 0xc5, 0x3f, 0xfb, 0x13, 0x07, 0x3f,
  0xf2, 0x70, 0x47, 0x3f, 0x76, 0x1a, 0x04, 0x3f, 0x96, 0x66, 0x33, 0xbf,
  0x63, 0xae, 0x44, 0x3f, 0xae, 0xc3, 0xa7, 0x3d, 0xb2, 0x45, 0xad, 0x3f,
  0xe9, 0xc6, 0x9d, 0xbf, 0xed, 0x6f, 0x30, 0xbe, 0xff, 0xf5, 0x31, 0xc0,
  0x75, 0xf8, 0x8e, 0xbe, 0x9e, 0xb4, 0xa1, 0xbf, 0xf0, 0x93, 0x85, 0x3b,
  0xbe, 0x65, 0x5f, 0x3d, 0x7b, 0x62, 0x22, 0xbf, 0x17, 0x86, 0xd1, 0xbe,
  0xf5, 0xc1, 0xa5, 0x3f, 0x79, 0x13, 0x87, 0x3e, 0x93, 0xae, 0x0b, 0x3f,
  0x16, 0x50, 0x60, 0x3f, 0x75, 0x53, 0x5b, 0x3e, 0x89, 0xd1, 0xb8, 0x3c,
  0x74, 0x5c, 0x82, 0xbf, 0x5c, 0x23, 0x6c, 0xbf, 0x4f, 0xb4, 0x17, 0x3f,
  0x80, 0x8a, 0x93, 0xbf, 0x1d, 0xbf, 0xe7, 0xbd, 0x70, 0x58, 0xa8, 0xbe,
  0xd6, 0x7e, 0x03, 0xbf, 0xa9, 0xd1, 0x02, 0xc0, 0xd7, 0xd9, 0x8b, 0xbf,
  0x57, 0x4d, 0xb6, 0x3f, 0x9a, 0x6c, 0xdb, 0xbe, 0x73, 0xfb, 0x1c, 0x3e,
  0x41, 0x9c, 0xbc, 0xbf, 0x16, 0xf4, 0x51, 0xbf, 0x56, 0x37, 0x85, 0xbe,
  0x5c, 0x69, 0xc4, 0x3e, 0xe3, 0x33, 0x98, 0xbf, 0xe4, 0x6d, 0x71, 0x3d,
  0x82, 0xfe, 0xc6, 0x3e, 0x79, 0x8a, 0x89, 0xbe, 0xd3, 0xfb, 0x84, 0xbf,
  0xed, 0x0a, 0xeb, 0x3e, 0x7c, 0x35, 0x53, 0x3d, 0xff, 0xc1, 0xbe, 0x3f,
  0xa5, 0x29, 0x2d, 0xbf, 0xec, 0x15, 0x8c, 0x40, 0xc3, 0x1f, 0x7f, 0x3d,
  0x8b, 0xfc, 0xd1, 0x3f, 0x84, 0x05, 0xa9, 0x3e, 0x9a, 0xea, 0xe5, 0x3e,
  0x8f, 0xf2, 0x5d, 0x3e, 0xcd, 0xf8, 0xf2, 0xbd, 0xee, 0x9e, 0x82, 0x3f,
  0x30, 0xf8, 0x64, 0x3e, 0x81, 0xf9, 0xa4, 0x3f, 0x73, 0x73, 0x36, 0xbe,
  0x94, 0x81, 0x42, 0xbe, 0x20, 0x81, 0xc8, 0xc0, 0x46, 0xc0, 0xf1, 0xbe,
  0x5b, 0x56, 0x32, 0xbe, 0x5b, 0xb0, 0xa0, 0xbe, 0x8a, 0x96, 0x1c, 0x3e,
  0x6e, 0x6e, 0xe1, 0xbe, 0x31, 0xdb, 0x6f, 0xbf, 0xc2, 0xeb, 0xd5, 0x3f,
  0x1b, 0xab, 0x66, 0xbe, 0xec, 0xe8, 0x65, 0xbe, 0x79, 0x34, 0x82, 0x3f,
  0xc2, 0xf9, 0xc7, 0xbe, 0x10, 0x35, 0x0c, 0x3f, 0x77, 0xe8, 0x9b, 0xbd,
  0xca, 0xe5, 0xb1, 0xbf, 0x27, 0xf5, 0x95, 0xbe, 0x22, 0x0e, 0x0e, 0xbf,
  0x7c, 0x91, 0xc6, 0x3e, 0x17, 0xe0, 0x04, 0xbf, 0x3c, 0x5a, 0xb5, 0x3e,
  0x63, 0x15, 0xd1, 0xbf, 0x4e, 0xe2, 0x19, 0xbf, 0x22, 0x02, 0xb6, 0x3f,
  0x00, 0x62, 0x80, 0xbf, 0xf5, 0xbb, 0x90, 0x3e, 0xda, 0xe6, 0xf4, 0xbf,
  0x5a, 0x59, 0xab, 0xbe, 0xea, 0x4b, 0xdf, 0x3e, 0x0c, 0xff, 0x66, 0x3f,
  0x56, 0x6e, 0xfa, 0xbf, 0x3b, 0xc3, 0x3b, 0x3e, 0xf5, 0x39, 0x5c, 0x3d,
  0x98, 0xfc, 0x37, 0x3e, 0xa8, 0x46, 0x11, 0xbf, 0x11, 0xdd, 0xf6, 0x3e,
  0x46, 0x4b, 0x12, 0x3f, 0x75, 0xdb, 0x4b, 0xbf, 0x2e, 0xbe, 0x0b, 0x3f,
  0xb3, 0xce, 0x47, 0xc0, 0xec, 0xf2, 0x61, 0x3e, 0xca, 0xda, 0x6b, 0xbf,
  0x80, 0x4d, 0x7a, 0x3e, 0x4e, 0xcd, 0xfc, 0x3d, 0x5a, 0x24, 0x50, 0x3e,
  0xf0, 0xc8, 0x6a, 0x3f, 0xf5, 0xcb, 0xd5, 0xbe, 0x03, 0xf0, 0x04, 0x3b,
  0x35, 0xfa, 0x3d, 0xbf, 0x0b, 0x4c, 0x22, 0x3d, 0x3c, 0x05, 0x1e, 0x3e,
  0x3a, 0xdc, 0xea, 0xbf, 0x2f, 0x14, 0x63, 0x3e, 0xd4, 0x16, 0x90, 0x3f,
  0x54, 0xe0, 0x22, 0x3e, 0x78, 0x4c, 0xb7, 0xbc, 0xd3, 0xce, 0x14, 0x3f,
  0xa7, 0xd5, 0x1b, 0xbe, 0x5a, 0x6e, 0x97, 0xbf, 0x81, 0x1c, 0x9a, 0x3d,
  0xad, 0x7f, 0x5e, 0x3e, 0x33, 0x58, 0xdd, 0xbe, 0x43, 0xc2, 0x33, 0xba,
  0x9b, 0xd1, 0x22, 0x3e, 0x49, 0x51, 0x68, 0x3f, 0x9e, 0xa6, 0x8c, 0x3f,
  0x00, 0x3c, 0x08, 0x3e, 0x9e, 0x92, 0xec, 0x3e, 0x2a, 0x2c, 0x09, 0x3e,
  0xb6, 0x14, 0x8a, 0x3e, 0x32, 0xb5, 0x05, 0xbe, 0xd3, 0x71, 0xc4, 0x3e,
  0x24, 0x3a, 0x5c, 0x3e, 0x5e, 0x74, 0x2f, 0xbf, 0x34, 0x80, 0x47, 0xbd,
  0x75, 0x09, 0x16, 0x3f, 0xe4, 0x5f, 0x5a, 0x3f, 0x48, 0x1f, 0xa6, 0xbd,
  0xcb, 0x42, 0x80, 0x3d, 0x0d, 0xb6, 0x26, 0xbf, 0xd7, 0x05, 0xc0, 0x3e,
  0xf9, 0xf5, 0xad, 0x3e, 0x40, 0x0d, 0xdc, 0x3e, 0x28, 0x9d, 0x15, 0x3f,
  0x3d, 0x8e, 0x97, 0x3d, 0x78, 0x32, 0x2d, 0x3f, 0x92, 0xe2, 0xff, 0xff,
  0x10, 0x00, 0x00, 0x00, 0x07, 0x00, 0x00, 0x00, 0x14, 0x00, 0x00, 0x00,
  0x30, 0x00, 0x00, 0x00, 0x02, 0x00, 0x00, 0x00, 0x0a, 0x00, 0x00, 0x00,
  0x32, 0x00, 0x00, 0x00, 0x19, 0x00, 0x00, 0x00, 0x73, 0x65, 0x71, 0x75,
  0x65, 0x6e, 0x74, 0x69, 0x61, 0x6c, 0x2f, 0x64, 0x65, 0x6e, 0x73, 0x65,
  0x5f, 0x32, 0x2f, 0x4d, 0x61, 0x74, 0x4d, 0x75, 0x6c, 0x00, 0x00, 0x00,
  0x24, 0xe2, 0xff, 0xff, 0x12, 0xe3, 0xff, 0xff, 0x04, 0x00, 0x00, 0x00,
  0xd0, 0x07, 0x00, 0x00, 0xa5, 0xc1, 0xa9, 0x3f, 0xec, 0x45, 0x69, 0xbe,
  0xd9, 0x82, 0x8d, 0xbe, 0xc3, 0xca, 0x8a, 0x3f, 0x44, 0xc4, 0xf7, 0x3e,
  0x6d, 0xc6, 0x88, 0xbc, 0x82, 0x19, 0xb3, 0xbe, 0x8b, 0x8d, 0xb1, 0xbd,
  0x06, 0x92, 0x25, 0xbe, 0x44, 0x21, 0x8b, 0x3f, 0x2b, 0x9b, 0x80, 0xbe,
  0xc2, 0x4d, 0xd7, 0xbf, 0x91, 0x5e, 0x2a, 0xc0, 0x80, 0x82, 0x2b, 0xbe,
  0xe2, 0x51, 0xa8, 0x3e, 0x7d, 0x49, 0x68, 0xbf, 0x37, 0x7d, 0x7a, 0xbe,
  0x44, 0xc5, 0x49, 0xbf, 0xbc, 0x4d, 0xa6, 0x3d, 0x11, 0x74, 0x66, 0x3e,
  0x4b, 0xba, 0xbd, 0x3e, 0x23, 0x47, 0x05, 0x3e, 0x50, 0x41, 0x84, 0x3f,
  0xee, 0x8c, 0x33, 0x3f, 0x09, 0x69, 0x96, 0x3e, 0xfb, 0x9a, 0x29, 0x3f,
  0x7a, 0xb5, 0x04, 0x3f, 0xb7, 0xfd, 0xda, 0x3e, 0x52, 0x49, 0x83, 0xbe,
  0xb7, 0x1d, 0xdb, 0xbc, 0xfe, 0x93, 0xa8, 0xbf, 0xaf, 0xd0, 0xc2, 0xbe,
  0x4c, 0x03, 0xe7, 0x3f, 0x93, 0xfd, 0x92, 0x3f, 0x5a, 0xe8, 0x5c, 0xbf,
  0x66, 0x8e, 0x0a, 0x3e, 0xe6, 0x86, 0x07, 0xbf, 0x92, 0x72, 0xbe, 0x3d,
  0x7a, 0x5f, 0x21, 0xbe, 0xd3, 0x0f, 0xeb, 0x3d, 0x59, 0x08, 0xb3, 0xbe,
  0x32, 0x51, 0xa5, 0xbe, 0x7b, 0x74, 0xba, 0x3f, 0x07, 0x82, 0xf8, 0x3e,
  0x95, 0xb0, 0x41, 0xbe, 0x58, 0x91, 0xb1, 0x3f, 0x90, 0x3b, 0x79, 0x3e,
  0xcf, 0xf4, 0xb6, 0x3e, 0x81, 0x32, 0xde, 0x3e, 0x25, 0x54, 0x74, 0xbe,
  0xe4, 0x08, 0xfc, 0xbe, 0x0c, 0x16, 0xbe, 0xbf, 0xdf, 0x25, 0xfb, 0xbf,
  0x40, 0x14, 0xf5, 0x3e, 0x99, 0xc7, 0xc9, 0x3e, 0x45, 0x7f, 0xdd, 0xbf,
  0xf3, 0x26, 0x75, 0xbf, 0x1b, 0xb4, 0x17, 0xbf, 0x5b, 0x73, 0xcc, 0xbe,
  0x4a, 0x99, 0x8e, 0x3e, 0x3b, 0x64, 0xc8, 0x3f, 0x36, 0xbd, 0x42, 0xbf,
  0xd6, 0x18, 0x91, 0xbe, 0x4d, 0xb3, 0xb1, 0x3f, 0x56, 0xda, 0x82, 0x3e,
  0x01, 0x17, 0x17, 0xbe, 0xf1, 0x58, 0x2e, 0x3d, 0xe6, 0x44, 0xcd, 0x3d,
  0x08, 0xea, 0x3d, 0xbe, 0x8e, 0x2f, 0x48, 0x3f, 0xce, 0x43, 0xb2, 0x3f,
  0xe9, 0xee, 0x5b, 0x3e, 0xbd, 0x91, 0xf9, 0x3a, 0x0e, 0x75, 0xbd, 0x3e,
  0x54, 0x00, 0x5b, 0xbe, 0x35, 0xfc, 0x1c, 0x3f, 0x3b, 0x42, 0x45, 0xbf,
  0x41, 0x18, 0x32, 0x3f, 0xab, 0xd7, 0xd0, 0x3d, 0x96, 0xec, 0x82, 0x3e,
  0x1d, 0x6f, 0xb6, 0x3f, 0xd0, 0x44, 0xfd, 0xbd, 0x45, 0x8b, 0xf6, 0xbe,
  0xd3, 0x24, 0xd0, 0x3f, 0x32, 0xf2, 0x7d, 0x3e, 0x40, 0x97, 0xf9, 0x3e,
  0x17, 0x96, 0xb9, 0x3e, 0x28, 0xc5, 0xda, 0xbd, 0xf5, 0x5b, 0x4d, 0xbe,
  0x06, 0x34, 0x5c, 0x3f, 0xfc, 0x25, 0x24, 0x3f, 0xce, 0xea, 0x8d, 0x3e,
  0x71, 0xd3, 0xe4, 0x3e, 0x1c, 0x2c, 0x0b, 0x3f, 0xde, 0x43, 0x17, 0x3e,
  0x34, 0x3c, 0x74, 0x3f, 0x5d, 0xa2, 0xb2, 0x3d, 0xd4, 0xab, 0x3b, 0x3f,
  0x65, 0x08, 0x1a, 0xbf, 0xde, 0x3c, 0x35, 0xbe, 0x3c, 0x4f, 0xe1, 0xbe,
  0xcc, 0x58, 0xaf, 0xbf, 0x11, 0x64, 0xa1, 0xbf, 0x4c, 0x9f, 0xbe, 0x3c,
  0x19, 0xfd, 0x6d, 0x3e, 0x6f, 0xb7, 0xa6, 0xbf, 0x61, 0x1c, 0xcd, 0xbe,
  0x68, 0xea, 0x1c, 0xbf, 0x4f, 0x90, 0x16, 0xbf, 0xfa, 0xd1, 0xc8, 0x3e,
  0x9f, 0x89, 0x23, 0x3f, 0x83, 0x21, 0x02, 0xbd, 0xfb, 0x56, 0xb6, 0x3e,
  0xc8, 0x14, 0x8e, 0x3f, 0x94, 0xce, 0x95, 0xbe, 0x8e, 0xf6, 0x2f, 0x3f,
  0xa6, 0x89, 0x79, 0x3e, 0xea, 0xe7, 0x5a, 0x3e, 0xc7, 0xeb, 0xd9, 0x3c,
  0x9f, 0xdf, 0x63, 0x3e, 0x0a, 0x5f, 0x9d, 0xbd, 0x44, 0xb8, 0xb1, 0xbf,
  0x09, 0xa5, 0xf2, 0xbf, 0xdf, 0x31, 0xc2, 0xbe, 0x91, 0x8b, 0xc4, 0x3e,
  0x31, 0xaa, 0xaa, 0xbf, 0xa2, 0xa9, 0x51, 0xbe, 0xdb, 0x73, 0x5a, 0xbf,
  0x09, 0x2c, 0x2f, 0xbf, 0xa3, 0x8b, 0xc3, 0x3e, 0x5c, 0xb5, 0xc3, 0xbd,
  0xf7, 0xa2, 0x47, 0xbe, 0x23, 0x59, 0xa1, 0x3f, 0x95, 0xdd, 0x17, 0x3f,
  0x8a, 0x6b, 0x45, 0xbd, 0xd9, 0xb1, 0xc3, 0x3f, 0xe6, 0x76, 0x93, 0x3e,
  0x61, 0xfc, 0xf1, 0x3e, 0xf7, 0xca, 0x10, 0x3e, 0x1e, 0xd5, 0xc1, 0xbe,
  0x09, 0x66, 0x0e, 0x3f, 0xaa, 0x36, 0xa1, 0x3d, 0x60, 0x0a, 0x2c, 0x3f,
  0x1d, 0x6e, 0x33, 0x3f, 0x98, 0xe5, 0x7e, 0xbb, 0xb7, 0x92, 0xf4, 0x3e,
  0x23, 0x9b, 0x0f, 0x3f, 0x8e, 0x37, 0xe3, 0x3e, 0x4a, 0xee, 0x9f, 0x3c,
  0xd9, 0x7b, 0x59, 0x3e, 0x20, 0x9b, 0x6d, 0xbf, 0xa3, 0x65, 0x1f, 0x3f,
  0x41, 0x96, 0xde, 0xbf, 0x21, 0xe4, 0x91, 0xbf, 0xb7, 0x21, 0xdf, 0xbe,
  0xe1, 0xf2, 0x09, 0xc0, 0xb2, 0xf2, 0x0a, 0x3f, 0xea, 0xfa, 0x3d, 0xbe,
  0xa8, 0xf0, 0x4b, 0x3e, 0x3a, 0x9f, 0xa9, 0xbf, 0x1a, 0xce, 0x1f, 0x3f,
  0x7e, 0x56, 0xc0, 0x3e, 0x5f, 0x5b, 0xbc, 0x3f, 0x49, 0xfe, 0xfb, 0x3e,
  0x1e, 0xb8, 0x3f, 0xbe, 0x9e, 0x7e, 0xfc, 0x3e, 0x22, 0x97, 0x88, 0x3e,
  0x53, 0xe0, 0xf4, 0x3e, 0xae, 0xeb, 0xd3, 0x3e, 0x81, 0xd1, 0xd3, 0x3d,
  0xcd, 0xa1, 0x0a, 0x3f, 0x8b, 0x98, 0x87, 0xbc, 0x64, 0x18, 0x11, 0x3f,
  0x03, 0x56, 0xa7, 0x3f, 0xa9, 0x69, 0x60, 0x3e, 0xb1, 0x5d, 0xa8, 0x3f,
  0x05, 0x4c, 0x7d, 0x3d, 0x72, 0x1c, 0xf8, 0x3e, 0x42, 0x3a, 0x8d, 0xbe,
  0xb2, 0xa4, 0x5c, 0xbe, 0x7c, 0x6e, 0xd0, 0x3e, 0xf0, 0x32, 0x4d, 0x3e,
  0x3f, 0x49, 0x48, 0x3f, 0x7b, 0x4a, 0xe8, 0x3e, 0xe2, 0x64, 0xfc, 0xbd,
  0x15, 0x34, 0x0d, 0x3f, 0xdb, 0x29, 0xde, 0x3d, 0x18, 0xfa, 0x80, 0x3d,
  0x38, 0x2f, 0x30, 0x3e, 0x6b, 0xc3, 0x96, 0x3e, 0xea, 0x0e, 0x70, 0x3f,
  0xf0, 0x4e, 0x49, 0xbe, 0x7e, 0xfd, 0x06, 0x3f, 0xa4, 0x48, 0x9f, 0x3e,
  0x90, 0xb0, 0x9a, 0xbe, 0x16, 0x30, 0xed, 0x3e, 0xb3, 0x9e, 0x3b, 0x3e,
  0xcb, 0x73, 0xde, 0x3e, 0x97, 0x11, 0x00, 0x3f, 0x60, 0x5a, 0xa9, 0xbc,
  0x98, 0x50, 0x2a, 0x3f, 0x12, 0x61, 0xdb, 0x3e, 0xa0, 0x96, 0x11, 0x3e,
  0x6f, 0x12, 0x00, 0x3f, 0x6b, 0xe2, 0xf3, 0xbd, 0x5c, 0x2f, 0x49, 0x3f,
  0x07, 0x30, 0x58, 0x3e, 0xa5, 0xdf, 0x61, 0x3f, 0xae, 0xe0, 0x3a, 0xbf,
  0xfb, 0xdc, 0x47, 0xbe, 0x2d, 0x57, 0xb7, 0x3d, 0x13, 0xf8, 0x73, 0x3f,
  0x41, 0xc6, 0xcc, 0x3f, 0x59, 0x7b, 0xbc, 0x3d, 0x7d, 0xb9, 0xae, 0xbe,
  0x11, 0x0b, 0x77, 0x3f, 0xc4, 0x65, 0xe0, 0x3e, 0x0f, 0xe8, 0x87, 0x3e,
  0x14, 0x42, 0x0d, 0x3f, 0x97, 0x4a, 0x19, 0x3e, 0x04, 0x03, 0x91, 0xbf,
  0x38, 0x20, 0x94, 0xbf, 0xc4, 0x66, 0xd4, 0xbf, 0x88, 0xf0, 0x81, 0x3e,
  0x59, 0x0c, 0xac, 0x3e, 0xc8, 0xf9, 0xfb, 0xbf, 0x3a, 0x04, 0x7c, 0xbf,
  0x1d, 0x5f, 0x97, 0xbe, 0xf9, 0xbc, 0x47, 0xbf, 0x30, 0x87, 0xda, 0x3e,
  0xac, 0x2f, 0x00, 0x3f, 0x63, 0xfa, 0xe6, 0xba, 0x9a, 0x7c, 0xb1, 0x3d,
  0x08, 0x23, 0x30, 0x3f, 0xb0, 0x73, 0x08, 0x3d, 0x46, 0x1a, 0x09, 0x3f,
  0x42, 0xb0, 0xa9, 0x3e, 0x2f, 0x37, 0x95, 0x3e, 0x8b, 0xcb, 0xb0, 0xbd,
  0xad, 0x98, 0x68, 0x3e, 0xa5, 0x5e, 0x8f, 0x3f, 0xfb, 0x84, 0x0a, 0xbf,
  0x72, 0x20, 0x04, 0xbe, 0x8c, 0x17, 0x76, 0x3f, 0x5e, 0xc2, 0xce, 0x3d,
  0x73, 0xc7, 0x90, 0xbe, 0x22, 0x56, 0xba, 0x3b, 0xed, 0x2f, 0x50, 0x3e,
  0x40, 0xaa, 0x6f, 0xbe, 0xfa, 0x3b, 0x8e, 0x3f, 0x8e, 0x63, 0x81, 0xbe,
  0xd4, 0xd9, 0xde, 0xbf, 0x91, 0x8d, 0x98, 0xbf, 0x9a, 0xd0, 0xd9, 0xbd,
  0xa0, 0xf4, 0x71, 0x3e, 0x50, 0xec, 0xc6, 0xbf, 0xde, 0x4c, 0xb4, 0xbe,
  0x8d, 0x3f, 0x40, 0xbf, 0xb2, 0xfc, 0x07, 0xbe, 0xdc, 0x10, 0xac, 0x3e,
  0xc6, 0x52, 0x2b, 0x3f, 0xf5, 0xf3, 0x12, 0x3d, 0xa1, 0x68, 0xfd, 0x3e,
  0x9e, 0x51, 0x26, 0x3f, 0x5a, 0x3f, 0x17, 0x3d, 0xfd, 0xb2, 0x0e, 0x3f,
  0x43, 0x10, 0x9b, 0x3e, 0x09, 0x32, 0x14, 0x3f, 0x63, 0x42, 0x73, 0xbe,
  0x69, 0x1d, 0x8d, 0x3e, 0x90, 0x0f, 0x97, 0x3f, 0x81, 0xc5, 0xc8, 0xbd,
  0x0c, 0x99, 0xad, 0x3e, 0xf0, 0xc2, 0xc3, 0x3f, 0x4a, 0xab, 0x28, 0xbe,
  0x62, 0xf3, 0x5d, 0x3f, 0xee, 0x52, 0x0c, 0x3e, 0x5c, 0x2b, 0xbc, 0x3e,
  0x13, 0xf8, 0x23, 0x3c, 0xa6, 0x81, 0x95, 0x3d, 0xdd, 0x78, 0x96, 0x3f,
  0x76, 0x95, 0xfc, 0x3d, 0x63, 0x3e, 0xdb, 0x3e, 0x6a, 0x51, 0x2d, 0x3f,
  0x11, 0x05, 0xfe, 0xbe, 0x92, 0x0a, 0xc5, 0x3e, 0x9a, 0x33, 0xf2, 0x3d,
  0x82, 0xb3, 0x75, 0x3f, 0xc1, 0x86, 0xca, 0xbe, 0x2b, 0xc3, 0xb6, 0x3e,
  0x08, 0x72, 0x6d, 0x3f, 0xe9, 0x7b, 0xa4, 0x3d, 0x7e, 0xfe, 0x19, 0x3f,
  0x44, 0xb3, 0x15, 0x3f, 0xb6, 0xd9, 0xfd, 0xbe, 0x71, 0xeb, 0x88, 0x3e,
  0x07, 0xc0, 0xb6, 0xbe, 0x08, 0x28, 0x78, 0x3f, 0xa3, 0xc4, 0x5d, 0xbe,
  0x4e, 0xae, 0x94, 0x3e, 0x13, 0x3e, 0x39, 0x3e, 0x13, 0x11, 0x1d, 0x3d,
  0xcc, 0xdc, 0xf9, 0x3c, 0x1c, 0x2d, 0x19, 0x3f, 0x56, 0x0e, 0x43, 0xbe,
  0xff, 0x25, 0x41, 0x3f, 0xe3, 0xf9, 0x13, 0xbe, 0x49, 0x0a, 0x07, 0x3f,
  0xa6, 0xf8, 0x28, 0x3c, 0x59, 0x46, 0xef, 0x3e, 0xdb, 0x9d, 0x4d, 0x3f,
  0x41, 0x13, 0x04, 0x3e, 0x04, 0xdf, 0x9a, 0x3e, 0x77, 0xa8, 0xbd, 0x3d,
  0xda, 0x11, 0x24, 0x3e, 0x17, 0x2b, 0x84, 0x3f, 0xb2, 0xd5, 0x9e, 0xbd,
  0x2b, 0x4a, 0x4a, 0x3f, 0x3d, 0x48, 0x91, 0xbe, 0xac, 0x29, 0xde, 0xbe,
  0x91, 0x98, 0x55, 0x3f, 0x15, 0xe6, 0xd9, 0xbd, 0x80, 0x91, 0xc3, 0x3e,
  0x1c, 0x7b, 0x92, 0x3f, 0x3a, 0xbc, 0x99, 0xbe, 0x32, 0x50, 0x4b, 0x3f,
  0x8c, 0x8a, 0xb3, 0x3c, 0xa8, 0x52, 0x7a, 0x3e, 0xc3, 0x7b, 0x75, 0x3e,
  0x42, 0x5c, 0xc6, 0x3d, 0xfc, 0x99, 0x02, 0x3f, 0x2e, 0x3f, 0xc5, 0x3e,
  0x1e, 0xba, 0xaf, 0x3f, 0x71, 0x22, 0xe9, 0x3e, 0xff, 0xd3, 0xf8, 0xbd,
  0x3f, 0x60, 0x25, 0x3f, 0xeb, 0xdf, 0x9b, 0x3e, 0xe9, 0xb8, 0xcb, 0x3e,
  0x0b, 0xd3, 0x43, 0x3e, 0x22, 0x13, 0x08, 0xbd, 0x78, 0xd1, 0xea, 0x3e,
  0xce, 0x28, 0x25, 0xbe, 0xed, 0x2e, 0x2d, 0x3f, 0x5c, 0xa9, 0x61, 0x3f,
  0xab, 0xa5, 0xb8, 0xbe, 0x35, 0xca, 0x1d, 0x3f, 0x8f, 0x82, 0x8f, 0xba,
  0x61, 0xa6, 0x99, 0x3c, 0x1c, 0x33, 0x05, 0x3f, 0xf8, 0x91, 0xae, 0x3d,
  0x1c, 0xc5, 0x4a, 0x3f, 0xab, 0x3d, 0x7c, 0x3e, 0xa2, 0xdd, 0x43, 0x3f,
  0xe5, 0xc7, 0xc2, 0x3e, 0x45, 0x9e, 0x4c, 0xbd, 0x10, 0xd9, 0x2e, 0x3f,
  0xb7, 0xe4, 0xba, 0xbc, 0x86, 0x20, 0x4e, 0x3f, 0x1c, 0x3d, 0xc8, 0xbe,
  0x8f, 0xd0, 0x87, 0x3c, 0x20, 0xa5, 0xe9, 0x3e, 0x5e, 0x5d, 0xa3, 0x3e,
  0xd6, 0xa0, 0x19, 0xbe, 0xc8, 0xe1, 0xaf, 0x3e, 0x20, 0x45, 0x53, 0xbf,
  0x40, 0x04, 0x9c, 0x3e, 0x81, 0x7b, 0x56, 0x3e, 0x2c, 0x52, 0x41, 0x3f,
  0x96, 0x76, 0x78, 0xbe, 0x48, 0xef, 0xa9, 0xbd, 0x5a, 0x8a, 0xd1, 0x3e,
  0x74, 0x3e, 0xae, 0xbf, 0x29, 0xc0, 0x20, 0xc0, 0xee, 0xd7, 0x0c, 0xbe,
  0x25, 0x56, 0x55, 0x3e, 0xe5, 0x78, 0x7e, 0xbf, 0x46, 0xf2, 0xa8, 0xbe,
  0x26, 0x8d, 0x01, 0xbf, 0x2f, 0xe6, 0x4b, 0xbe, 0x2d, 0x73, 0xd7, 0x3d,
  0x5e, 0x0a, 0xb0, 0x3d, 0x76, 0x8d, 0x92, 0x3f, 0x98, 0xf8, 0xba, 0x3f,
  0x61, 0x63, 0x90, 0x3e, 0x76, 0x1a, 0x1c, 0xbe, 0x51, 0xdf, 0x1d, 0x3f,
  0x84, 0xd3, 0xd0, 0x3e, 0x05, 0x5d, 0x34, 0x3f, 0xc0, 0x7f, 0x16, 0x3f,
  0xc1, 0xe0, 0xc6, 0xbb, 0x4a, 0xbd, 0x8b, 0x3f, 0xea, 0xd5, 0x21, 0x3d,
  0xf5, 0xaf, 0x8b, 0x3e, 0x6c, 0x8a, 0x70, 0x3f, 0x22, 0x51, 0xad, 0x3e,
  0x72, 0xad, 0x0f, 0x3f, 0xf2, 0xe6, 0x33, 0xbd, 0x38, 0x6b, 0xc2, 0x3e,
  0xe7, 0xc9, 0xa7, 0xbe, 0x85, 0x98, 0x0a, 0xbe, 0x72, 0xb2, 0xc9, 0x3e,
  0x8e, 0x5a, 0xda, 0xbd, 0x7e, 0x21, 0x2f, 0x3f, 0xe9, 0xe7, 0x27, 0x3e,
  0x3c, 0xc9, 0x7a, 0xbf, 0x4d, 0x57, 0x6f, 0x3f, 0xb9, 0xb6, 0xca, 0xbe,
  0x38, 0xc5, 0x50, 0x3f, 0x92, 0x67, 0xa2, 0xbd, 0x23, 0x4e, 0xf5, 0x3d,
  0xcc, 0x48, 0x04, 0x3e, 0x70, 0x40, 0x8b, 0x3e, 0x40, 0xff, 0xf7, 0x3f,
  0x5c, 0xbb, 0x11, 0x3f, 0xac, 0x14, 0x90, 0xbd, 0x5b, 0x95, 0xd7, 0x3e,
  0x90, 0x8e, 0x0e, 0x3f, 0x75, 0x6c, 0xa2, 0x3e, 0x14, 0x04, 0xe3, 0x3d,
  0x22, 0xe6, 0x17, 0xbe, 0xfe, 0x97, 0x63, 0x3f, 0xe0, 0x30, 0x51, 0xbe,
  0xc2, 0x72, 0x35, 0x3f, 0xcb, 0xe9, 0xf5, 0x3e, 0xdb, 0x62, 0xd6, 0xbd,
  0x2f, 0x67, 0x25, 0x3f, 0xe8, 0x1c, 0x2e, 0xbe, 0xa3, 0xf2, 0xfb, 0x3d,
  0xc2, 0xf6, 0x04, 0x3f, 0x0d, 0x39, 0x8b, 0xbe, 0x4a, 0x25, 0x23, 0xbf,
  0xcb, 0xfa, 0xe8, 0xbf, 0x31, 0xf6, 0x1d, 0xbe, 0xa9, 0x62, 0xb1, 0xbc,
  0x1a, 0x5b, 0xc0, 0x3e, 0x95, 0xd1, 0xd5, 0xbf, 0x75, 0x34, 0x9b, 0xbe,
  0x19, 0xbc, 0x6a, 0xbf, 0x3f, 0xf4, 0xbb, 0x3a, 0x37, 0x89, 0x80, 0x3e,
  0x3e, 0x6c, 0x20, 0x3f, 0x80, 0x8c, 0x8e, 0x3e, 0x4d, 0xb8, 0x10, 0x3f,
  0x72, 0x41, 0x25, 0x3e, 0x80, 0xf3, 0x44, 0xbf, 0xb3, 0x4d, 0x28, 0x3f,
  0x52, 0x30, 0x34, 0xbe, 0xa4, 0x21, 0x71, 0x3f, 0x9b, 0xbb, 0xb8, 0xbe,
  0xff, 0xc5, 0x36, 0xbe, 0xe5, 0x8c, 0x4d, 0x3f, 0xb4, 0xde, 0x10, 0xbe,
  0xa7, 0x7d, 0x84, 0x3e, 0x6c, 0x2b, 0x0d, 0x3f, 0xd9, 0x32, 0x6c, 0xbe,
  0xc6, 0x05, 0x2e, 0x3f, 0x1a, 0x54, 0x10, 0x3f, 0x77, 0xc2, 0xd7, 0x3e,
  0x40, 0x98, 0xea, 0x3d, 0x88, 0xf9, 0x3e, 0x3e, 0x72, 0x2d, 0x35, 0x3f,
  0xc5, 0x22, 0x10, 0xbe, 0x79, 0x5d, 0x40, 0x3e, 0xef, 0x1f, 0x9c, 0x3f,
  0xc1, 0x88, 0x94, 0xbe, 0x65, 0xa1, 0x49, 0x3f, 0x66, 0x0e, 0xb7, 0x3d,
  0x92, 0xe4, 0x82, 0xbd, 0xe1, 0xc5, 0xa0, 0x3e, 0x97, 0x9a, 0x16, 0x3f,
  0xfd, 0x27, 0xfe, 0x3e, 0x4f, 0xb4, 0x43, 0xbd, 0x5c, 0xfc, 0xed, 0x3e,
  0xc1, 0x7b, 0xa5, 0x3f, 0xee, 0xd3, 0x15, 0xbd, 0x71, 0xed, 0x61, 0x3f,
  0xc8, 0xf4, 0x00, 0xbe, 0xf8, 0x0d, 0x8f, 0x3e, 0xc3, 0x27, 0x4b, 0xbd,
  0x9c, 0x9e, 0x61, 0x3d, 0xde, 0x8c, 0x47, 0x3f, 0xc3, 0x2e, 0x61, 0x3d,
  0x2a, 0xb3, 0xb5, 0x3f, 0xe4, 0x7a, 0x2f, 0x3e, 0xe9, 0x4b, 0x9b, 0xbe,
  0x12, 0xdf, 0x15, 0x3f, 0x88, 0xc9, 0x15, 0x3f, 0x0d, 0x78, 0xf5, 0x3e,
  0x21, 0xb2, 0xc7, 0x3d, 0x29, 0xf2, 0x9d, 0xbd, 0xb3, 0xcb, 0xa9, 0x3f,
  0x8e, 0xc8, 0x3b, 0xbf, 0x54, 0xe4, 0x36, 0xbf, 0x54, 0x3f, 0x84, 0x3f,
  0xf2, 0xf3, 0x0f, 0x3d, 0xc4, 0xc1, 0x69, 0xbe, 0x21, 0x64, 0xfa, 0x3e,
  0x50, 0x31, 0x59, 0xbf, 0x06, 0xc1, 0x7d, 0xbd, 0x1c, 0xed, 0x92, 0x3f,
  0xb2, 0xea, 0xff, 0xff, 0x10, 0x00, 0x00, 0x00, 0x06, 0x00, 0x00, 0x00,
  0x14, 0x00, 0x00, 0x00, 0x30, 0x00, 0x00, 0x00, 0x02, 0x00, 0x00, 0x00,
  0x32, 0x00, 0x00, 0x00, 0x0a, 0x00, 0x00, 0x00, 0x19, 0x00, 0x00, 0x00,
  0x73, 0x65, 0x71, 0x75, 0x65, 0x6e, 0x74, 0x69, 0x61, 0x6c, 0x2f, 0x64,
  0x65, 0x6e, 0x73, 0x65, 0x5f, 0x31, 0x2f, 0x4d, 0x61, 0x74, 0x4d, 0x75,
  0x6c, 0x00, 0x00, 0x00, 0x44, 0xea, 0xff, 0xff, 0x32, 0xeb, 0xff, 0xff,
  0x04, 0x00, 0x00, 0x00, 0x10, 0x13, 0x00, 0x00, 0x1b, 0x48, 0xab, 0xbc,
  0xe5, 0xab, 0x51, 0x3d, 0x34, 0x20, 0x4b, 0xbd, 0x18, 0x21, 0x37, 0x3e,
  0x98, 0xc1, 0x9a, 0xbe, 0x1a, 0xe9, 0x76, 0xbd, 0xbf, 0xbc, 0xf5, 0xbf,
  0x60, 0xa5, 0x9a, 0xbe, 0x78, 0xd0, 0x89, 0xbe, 0x9a, 0x68, 0xdb, 0xbc,
  0x4a, 0x76, 0x9b, 0x3e, 0x2f, 0xb5, 0x33, 0x3f, 0xad, 0xc3, 0x76, 0x3f,
  0x27, 0xe5, 0xba, 0x3d, 0x75, 0x65, 0xde, 0xbe, 0x40, 0x18, 0x98, 0x3e,
  0x38, 0xe2, 0x1b, 0x3e, 0x82, 0xc9, 0xbb, 0xbd, 0x4d, 0x3c, 0x53, 0xbe,
  0x8d, 0x33, 0x74, 0x3c, 0x44, 0xa2, 0x94, 0x3e, 0xee, 0x9e, 0xcf, 0xbd,
  0xac, 0x2f, 0x02, 0xbf, 0x48, 0x90, 0x88, 0xbe, 0x84, 0xad, 0x8f, 0xbe,
  0xb0, 0xa0, 0x85, 0xbd, 0x7b, 0x58, 0xf4, 0xbd, 0x14, 0x65, 0x6d, 0xbc,
  0xe8, 0xa6, 0x68, 0xbf, 0x31, 0x0c, 0x81, 0x3e, 0xa2, 0x6d, 0x43, 0x3c,
  0x82, 0x85, 0x9a, 0xbf, 0x7f, 0xe9, 0x98, 0xbf, 0x47, 0x55, 0x9d, 0x3e,
  0x48, 0x95, 0xfe, 0x3e, 0xeb, 0xc4, 0x42, 0x3d, 0x0c, 0x14, 0xbd, 0x3e,
  0xce, 0xcf, 0x82, 0x3e, 0xcf, 0xb6, 0xc1, 0xbd, 0x9d, 0x0c, 0x12, 0xbe,
  0x29, 0xd3, 0x1a, 0xbe, 0x8a, 0x23, 0xba, 0x3e, 0x7e, 0x65, 0x96, 0x3e,
  0xc9, 0x99, 0xec, 0x3d, 0xc4, 0xbf, 0x23, 0x3d, 0x58, 0x1c, 0x49, 0x3e,
  0xba, 0x43, 0x37, 0x3e, 0x85, 0xbf, 0x32, 0x3e, 0x39, 0xda, 0x00, 0xbd,
  0xa0, 0x78, 0x2e, 0xbe, 0x21, 0x03, 0x3d, 0x3e, 0xab, 0x07, 0x22, 0x3e,
  0xfc, 0xff, 0x20, 0x3e, 0x09, 0x26, 0x45, 0x3f, 0x16, 0x80, 0x0f, 0x3e,
  0xa6, 0x67, 0x14, 0xbf, 0x83, 0x6e, 0x19, 0x3e, 0xb6, 0xcc, 0x3d, 0x3e,
  0x9a, 0xea, 0x35, 0xbe, 0x3b, 0x10, 0x7e, 0x3e, 0x33, 0x87, 0x79, 0x3e,
  0xb1, 0xb7, 0x80, 0x3e, 0xcd, 0x27, 0x82, 0x3e, 0xc4, 0x9d, 0xf0, 0xbd,
  0x40, 0xc2, 0x29, 0x3e, 0xc5, 0xc5, 0xa2, 0xbd, 0x1d, 0x5c, 0x89, 0x3c,
  0x03, 0x58, 0xd3, 0x3d, 0x68, 0x4b, 0x0d, 0x3d, 0x28, 0x2e, 0x95, 0x3e,
  0x83, 0x62, 0x2d, 0x3e, 0x79, 0x53, 0xc6, 0xbd, 0x80, 0xf2, 0x87, 0x3d,
  0xc6, 0xcd, 0x24, 0x3e, 0x76, 0x4c, 0xd5, 0x3e, 0x69, 0x6a, 0xed, 0x3d,
  0xd6, 0x0a, 0x25, 0x3e, 0x8b, 0x8b, 0x05, 0x3e, 0x86, 0xc2, 0x33, 0x3e,
  0xce, 0x7b, 0x2b, 0x3e, 0x38, 0xd0, 0xab, 0xbd, 0xb3, 0xa2, 0x1a, 0x3e,
  0x78, 0x33, 0x18, 0x3e, 0x62, 0x08, 0xec, 0x3d, 0x6c, 0x71, 0x00, 0x3f,
  0x87, 0xa3, 0x66, 0x3c, 0x4a, 0x6b, 0x5b, 0x3c, 0xf7, 0x65, 0x51, 0x3e,
  0xd6, 0x94, 0x6f, 0x3e, 0x02, 0xa4, 0xde, 0x3d, 0xfe, 0xa2, 0x8a, 0x3e,
  0x76, 0x2b, 0x0a, 0x3f, 0x05, 0x57, 0xa6, 0xbd, 0x5c, 0x7b, 0x75, 0x3e,
  0xff, 0x85, 0xd6, 0xbd, 0x4c, 0xa6, 0xad, 0x3d, 0x96, 0x23, 0xce, 0x3e,
  0x53, 0x85, 0xc0, 0xbd, 0x5c, 0x48, 0xfa, 0x3d, 0xd8, 0xea, 0x1c, 0x3e,
  0xc9, 0x71, 0x29, 0x3e, 0x57, 0x3f, 0xcd, 0x3c, 0xfa, 0xa5, 0xc6, 0xbd,
  0x02, 0x72, 0xa8, 0x3e, 0x2d, 0x3b, 0x52, 0x3e, 0xb5, 0xc0, 0x31, 0xbe,
  0x1b, 0xe5, 0x7b, 0x3e, 0xaa, 0xeb, 0xf6, 0x3d, 0x8c, 0x0d, 0x28, 0x3e,
  0x6c, 0x58, 0x19, 0xbe, 0xf9, 0x8f, 0xf7, 0xbd, 0xf8, 0x39, 0x45, 0x3e,
  0x2d, 0xbd, 0x80, 0x3e, 0x65, 0x6c, 0xcd, 0x3e, 0x08, 0x26, 0x54, 0xbe,
  0x2e, 0xe0, 0xcc, 0x3d, 0xd9, 0xab, 0x37, 0xbf, 0xe9, 0xf9, 0x1a, 0x3e,
  0x4f, 0x8e, 0x13, 0xbe, 0x02, 0xe9, 0x66, 0x3e, 0x19, 0x7a, 0xd5, 0x3e,
  0xde, 0xe6, 0xd8, 0x3e, 0x4d, 0x72, 0x88, 0x3c, 0x58, 0x01, 0xa7, 0xbd,
  0x73, 0xec, 0x16, 0xbe, 0x0f, 0x8b, 0x34, 0xbe, 0x62, 0x2f, 0x05, 0xbf,
  0x20, 0x4c, 0x98, 0x3e, 0xd6, 0xaf, 0x8b, 0x3e, 0x87, 0x10, 0x94, 0x3e,
  0x05, 0xba, 0x5b, 0x3f, 0x7b, 0x53, 0x12, 0x3e, 0x41, 0x98, 0x89, 0x3d,
  0xe3, 0xa8, 0xb0, 0x3e, 0x3c, 0x4b, 0x49, 0x3f, 0x99, 0x40, 0x55, 0x3e,
  0xb7, 0xcc, 0x32, 0x3e, 0x96, 0x72, 0x8d, 0x3e, 0x4c, 0xc6, 0xaa, 0x3d,
  0xea, 0xef, 0x85, 0x3e, 0x6e, 0xda, 0x2f, 0xbc, 0xd1, 0x0f, 0x57, 0xbf,
  0xe1, 0x10, 0x7e, 0xbf, 0xcd, 0x9e, 0x8c, 0xbe, 0x8b, 0xc4, 0x8c, 0xbe,
  0xf8, 0x70, 0xf7, 0x3d, 0xf0, 0x19, 0x5b, 0xbe, 0xbf, 0xb8, 0x5b, 0x3f,
  0x4d, 0xdd, 0x95, 0x3e, 0x71, 0x8f, 0xa4, 0x3e, 0xee, 0x49, 0xaa, 0xbf,
  0x7e, 0xc0, 0x58, 0xbe, 0x36, 0xa5, 0x66, 0x3f, 0xa1, 0x39, 0xd1, 0xbd,
  0x3f, 0x3f, 0x21, 0xbf, 0x40, 0x3a, 0xa8, 0xbe, 0xa4, 0xce, 0xbb, 0x3d,
  0xc0, 0x2b, 0xbd, 0xbd, 0x01, 0xf0, 0xb6, 0xbe, 0xb1, 0xab, 0x0e, 0x3d,
  0xb4, 0x7d, 0x24, 0xbe, 0x0d, 0x77, 0x02, 0x3e, 0xc1, 0x81, 0x48, 0xbe,
  0x53, 0x64, 0x11, 0x3e, 0x87, 0x02, 0xe9, 0x3b, 0x8d, 0xc6, 0x94, 0x3c,
  0xb7, 0x3d, 0x14, 0xbe, 0xa0, 0x73, 0x3b, 0x3e, 0x23, 0x7d, 0x40, 0xbe,
  0xd9, 0xa2, 0x00, 0xbe, 0xc0, 0x75, 0x43, 0xbe, 0xe6, 0x74, 0x57, 0xbe,
  0x51, 0x85, 0x28, 0xbe, 0x9c, 0xd3, 0x43, 0xbe, 0x26, 0x5d, 0x92, 0xbe,
  0x7b, 0x68, 0xcc, 0x3d, 0x93, 0xb7, 0x5b, 0xbe, 0x73, 0x5b, 0x84, 0xbf,
  0x2c, 0x5b, 0xcd, 0x3b, 0x42, 0x46, 0xef, 0xbc, 0xcf, 0x9d, 0x00, 0xbe,
  0xf0, 0xd1, 0x53, 0xbd, 0x20, 0xdb, 0x24, 0xbe, 0xdd, 0x62, 0xc8, 0xbe,
  0xb0, 0xa2, 0x85, 0xbe, 0x4a, 0x56, 0x9d, 0xbd, 0x2f, 0x74, 0x73, 0xbd,
  0xc0, 0xa8, 0xc7, 0x3e, 0xd2, 0xca, 0xd6, 0xbd, 0x30, 0x63, 0x30, 0xbd,
  0x05, 0x2a, 0x50, 0xbd, 0xec, 0xe3, 0xf6, 0xbe, 0x59, 0xa3, 0xd8, 0xbd,
  0x8e, 0x9b, 0xe6, 0xbd, 0xc3, 0xa1, 0x16, 0x3e, 0xdc, 0xf1, 0x0d, 0xbe,
  0x2c, 0xc3, 0x35, 0xbe, 0xe0, 0x87, 0x23, 0xbe, 0x68, 0xad, 0x3a, 0xbe,
  0x04, 0xfb, 0x4a, 0xbe, 0xe4, 0xec, 0x8d, 0xbd, 0x17, 0xf6, 0x90, 0xbd,
  0x60, 0x25, 0x83, 0xbd, 0x60, 0xda, 0x3c, 0xbe, 0xf1, 0x97, 0x1d, 0xbe,
  0xd4, 0x15, 0x9c, 0xbe, 0x0e, 0x67, 0xe5, 0x3e, 0x18, 0xb3, 0xaf, 0x3e,
  0x63, 0xd2, 0xe5, 0xbd, 0x81, 0xc7, 0x43, 0xbe, 0x6c, 0x22, 0x5d, 0xbd,
  0xa0, 0xfc, 0x4d, 0xbe, 0xa7, 0x4c, 0x27, 0xbf, 0xc7, 0x4f, 0x47, 0x3d,
  0x53, 0xd4, 0x44, 0xbe, 0x26, 0xf5, 0x15, 0xbe, 0xd6, 0xa4, 0xb7, 0xbd,
  0x46, 0x9a, 0x21, 0x3e, 0xb0, 0x87, 0x0a, 0xbe, 0xaa, 0xa9, 0x80, 0xbe,
  0x9d, 0xac, 0xf0, 0xbd, 0x0a, 0x27, 0x38, 0xbd, 0x7c, 0x30, 0x4d, 0xbe,
  0x4e, 0x20, 0x1e, 0xbc, 0xa4, 0x73, 0x30, 0xbe, 0x57, 0x90, 0x75, 0x3e,
  0x4e, 0xe6, 0x57, 0xbe, 0x6a, 0x6e, 0xa2, 0xbd, 0xbd, 0xa1, 0x1e, 0x3e,
  0xff, 0xc9, 0x9a, 0xbe, 0x78, 0xb1, 0x04, 0xbe, 0x6d, 0x3f, 0xb6, 0xbd,
  0xb2, 0xdb, 0x58, 0xbe, 0xa2, 0xde, 0x83, 0xbd, 0x67, 0x04, 0xff, 0xbe,
  0x31, 0xc1, 0x93, 0xbd, 0xb2, 0x4a, 0x7e, 0xbd, 0xf1, 0x5c, 0x58, 0xbe,
  0xe6, 0xf6, 0x0c, 0x3b, 0x0c, 0x1a, 0x74, 0x3d, 0xaa, 0xbd, 0x46, 0x3d,
  0x31, 0x33, 0x50, 0x3d, 0x31, 0x53, 0x39, 0xbe, 0x62, 0x35, 0x06, 0xbe,
  0xe4, 0xaf, 0x0e, 0x3f, 0x7f, 0x7c, 0x4d, 0x3e, 0xd3, 0xc9, 0x07, 0xbe,
  0x45, 0xff, 0x1e, 0xbe, 0x2d, 0x3f, 0x6c, 0xbe, 0x12, 0xad, 0x65, 0x3e,
  0xef, 0xd8, 0x3c, 0x3e, 0x15, 0xf2, 0xcd, 0x3e, 0x61, 0x0d, 0x76, 0xbe,
  0x69, 0x24, 0x19, 0xbe, 0x5c, 0x28, 0x48, 0x3e, 0x37, 0xab, 0xc4, 0x3e,
  0xca, 0x0c, 0x78, 0x3f, 0x0e, 0x10, 0xbd, 0x3e, 0xe8, 0xd9, 0x07, 0xbe,
  0x48, 0xed, 0x07, 0xbf, 0xe4, 0x1f, 0xc0, 0x3d, 0x06, 0x39, 0x95, 0xbc,
  0x35, 0xf6, 0xbc, 0x3e, 0xd5, 0x9e, 0x8f, 0xbe, 0x95, 0x3e, 0x00, 0xbe,
  0x97, 0x1a, 0x21, 0x3d, 0xc4, 0x13, 0x3b, 0x3d, 0x23, 0x11, 0x8d, 0xbf,
  0x0a, 0x0e, 0xb8, 0xbe, 0x55, 0x7f, 0x85, 0x3b, 0xcb, 0x11, 0x17, 0x3d,
  0xf2, 0xec, 0xfa, 0xbd, 0x24, 0x38, 0xbe, 0x3f, 0x89, 0x29, 0x6b, 0x3b,
  0x06, 0xbb, 0x39, 0x3d, 0x3f, 0xe1, 0x78, 0x3f, 0xe9, 0x4c, 0xb8, 0xbe,
  0x4f, 0x4f, 0xb6, 0x3e, 0x20, 0x85, 0xed, 0x3e, 0x23, 0x40, 0x92, 0x3c,
  0x66, 0xe1, 0xca, 0xbf, 0x2a, 0x6c, 0x06, 0xbe, 0x12, 0x97, 0x1e, 0x3e,
  0xc6, 0xd9, 0x39, 0x3d, 0x58, 0xe4, 0x87, 0xbe, 0x0c, 0x6d, 0x40, 0x3f,
  0xe7, 0x7c, 0x48, 0x3e, 0xce, 0xc3, 0x75, 0x3e, 0x63, 0xe9, 0xf3, 0xba,
  0x92, 0x9b, 0x11, 0x3f, 0xa8, 0x63, 0x21, 0x3e, 0x39, 0x58, 0xa0, 0x3d,
  0x89, 0x64, 0x0b, 0xbe, 0x26, 0xb4, 0x73, 0xbd, 0x66, 0xd8, 0xaa, 0x3d,
  0x72, 0xee, 0xf3, 0x3d, 0xe9, 0x38, 0x15, 0xbe, 0xdc, 0x3e, 0x96, 0x3e,
  0xe4, 0xa9, 0xcd, 0xbd, 0x23, 0xea, 0xcc, 0x3e, 0xc3, 0x7c, 0xa4, 0xbe,
  0xef, 0xc1, 0xdc, 0xbd, 0xed, 0xc1, 0xc2, 0x3c, 0x50, 0xbf, 0x09, 0xbd,
  0x42, 0xc9, 0x3c, 0xbe, 0x81, 0xb3, 0xd1, 0x3e, 0x7f, 0x32, 0x1e, 0xbe,
  0x4f, 0x0d, 0x98, 0xbd, 0xeb, 0xff, 0xe0, 0x3d, 0xe6, 0x41, 0x22, 0xbf,
  0x61, 0x8d, 0x51, 0x3b, 0x83, 0x9c, 0x7c, 0x3e, 0x36, 0xd3, 0x6a, 0x3c,
  0xf8, 0x65, 0xad, 0x3e, 0x32, 0x49, 0x1b, 0x3e, 0x3d, 0xc3, 0xef, 0x3b,
  0xbd, 0x62, 0xb8, 0x3e, 0x12, 0x2f, 0xf2, 0x3d, 0xb2, 0xea, 0x5d, 0xbd,
  0x3f, 0xa0, 0x08, 0x3e, 0x1c, 0xc7, 0xb0, 0x3d, 0x2f, 0xf1, 0xdf, 0x3d,
  0x54, 0x8c, 0x03, 0xbe, 0xe1, 0x6a, 0xe6, 0xba, 0x29, 0xe9, 0xb9, 0x3d,
  0xba, 0x79, 0xfe, 0x3d, 0xd5, 0x32, 0x53, 0x3c, 0x69, 0xbe, 0x90, 0x3c,
  0xba, 0x73, 0x0b, 0x3f, 0xcf, 0x6d, 0x85, 0xbd, 0x10, 0x38, 0x2a, 0xbd,
  0x0a, 0xcb, 0xe0, 0x3a, 0x4f, 0xff, 0x3a, 0x3e, 0xb5, 0xe7, 0x32, 0x3e,
  0x44, 0xf7, 0xfb, 0xbd, 0xef, 0x02, 0xe3, 0xbd, 0xdb, 0xfc, 0x27, 0xbd,
  0x40, 0x23, 0x9c, 0x3d, 0x05, 0x71, 0xf1, 0x3d, 0xcb, 0xe4, 0x48, 0xbe,
  0x2b, 0x44, 0xfe, 0xbd, 0x2b, 0xbf, 0x0c, 0x3e, 0xc9, 0x8b, 0x06, 0x3e,
  0x86, 0xdf, 0x4e, 0x3d, 0x8b, 0x2e, 0xc4, 0x3d, 0x53, 0x39, 0x0c, 0xbf,
  0xe0, 0xe4, 0x7f, 0x3e, 0x8d, 0xca, 0x80, 0x3e, 0xea, 0xf4, 0xe1, 0x3c,
  0x04, 0x88, 0x94, 0xbd, 0xa1, 0x19, 0x4a, 0x3e, 0xba, 0x15, 0x14, 0x3d,
  0x6a, 0xe1, 0xb8, 0x3d, 0x61, 0x8e, 0xce, 0xbd, 0xc3, 0x6f, 0x7e, 0xbd,
  0x41, 0xae, 0x61, 0x3b, 0xc5, 0x02, 0x3a, 0xbe, 0x67, 0xd7, 0x05, 0xbe,
  0x49, 0x7d, 0x68, 0xbc, 0xa6, 0x7b, 0xe2, 0xbe, 0x3c, 0x26, 0xbf, 0xbd,
  0x52, 0x92, 0x78, 0xbd, 0x67, 0x1a, 0x8b, 0x3e, 0x2d, 0xb1, 0xf3, 0xbd,
  0xf8, 0xf8, 0x9c, 0x3e, 0xaa, 0xec, 0xc8, 0xbe, 0x0c, 0x52, 0x85, 0x3f,
  0xc3, 0x38, 0xfb, 0xbf, 0x54, 0xb4, 0x0f, 0xbe, 0x2e, 0x3d, 0xb7, 0xbc,
  0x7c, 0x49, 0xbc, 0xbe, 0x3a, 0x6b, 0xcb, 0x3e, 0x7e, 0x31, 0x0f, 0xc0,
  0xd2, 0x10, 0x6f, 0xbd, 0x87, 0x91, 0x18, 0xbf, 0x2e, 0x6e, 0x05, 0xc0,
  0x9f, 0x16, 0x52, 0xbf, 0x96, 0x70, 0xbd, 0xbe, 0x50, 0xc8, 0x3a, 0x3e,
  0x73, 0x19, 0x98, 0xbe, 0x3c, 0xf4, 0xbf, 0x3e, 0xd7, 0xa5, 0x8b, 0x3e,
  0x26, 0xe4, 0x1e, 0x3e, 0xe6, 0xb4, 0x1b, 0xbe, 0x99, 0x52, 0x8c, 0xbe,
  0x69, 0x20, 0x00, 0xbf, 0x75, 0x51, 0xc3, 0x3e, 0xf7, 0x2e, 0xe4, 0x3d,
  0x26, 0xcd, 0xb8, 0xbd, 0x4d, 0xaa, 0x83, 0xbd, 0xd8, 0xcb, 0xd7, 0x3c,
  0x60, 0x40, 0x44, 0x3f, 0xa3, 0xc2, 0x32, 0x3e, 0x55, 0x6a, 0x10, 0x3e,
  0x78, 0x0b, 0xf5, 0x3e, 0xa6, 0x03, 0x71, 0x3e, 0xd4, 0x20, 0x9b, 0x3f,
  0xc5, 0xd9, 0x47, 0x3d, 0x78, 0x19, 0xd8, 0x3e, 0x92, 0x9b, 0x41, 0x3f,
  0x6b, 0x4f, 0x29, 0xbf, 0xf1, 0xa1, 0xbb, 0xbe, 0x08, 0x0e, 0x32, 0xbf,
  0x70, 0xd6, 0x62, 0x3e, 0xeb, 0x18, 0x9a, 0xbd, 0xa1, 0x3b, 0xd9, 0xbd,
  0x05, 0x69, 0xc4, 0x39, 0x66, 0x3e, 0x8a, 0x3e, 0xe1, 0xe1, 0xf0, 0xbd,
  0xa1, 0x72, 0x36, 0xbe, 0xd8, 0x75, 0x21, 0xbb, 0x90, 0xd2, 0xb6, 0x3e,
  0x46, 0xbe, 0x32, 0xbe, 0x0d, 0x24, 0x8b, 0x3e, 0x10, 0x35, 0x14, 0xbe,
  0x72, 0x75, 0x01, 0xbc, 0x65, 0x28, 0xab, 0x3b, 0xbd, 0x6b, 0xf0, 0xbd,
  0x82, 0xd6, 0x77, 0xbd, 0x11, 0xd4, 0x9f, 0x3e, 0xb2, 0x91, 0x05, 0x3e,
  0x02, 0x38, 0x85, 0xbe, 0xee, 0x86, 0x11, 0x3d, 0xfc, 0x2a, 0x3c, 0xbd,
  0xb6, 0xe3, 0x2d, 0x3e, 0xbc, 0x84, 0x8c, 0x3e, 0x64, 0x53, 0xa9, 0x3e,
  0x1c, 0x85, 0x45, 0xbf, 0xb6, 0x71, 0x10, 0xbe, 0x95, 0xcf, 0x30, 0xbe,
  0x27, 0xf4, 0x61, 0xbd, 0x71, 0x03, 0x30, 0x3f, 0x50, 0x57, 0x02, 0x3b,
  0x64, 0x41, 0x0d, 0xbe, 0x14, 0x6b, 0x49, 0x3d, 0xc2, 0xe2, 0x0c, 0xbd,
  0x66, 0xd3, 0xc4, 0xbd, 0x4b, 0x28, 0x07, 0xbe, 0x5b, 0x77, 0x02, 0x3f,
  0x68, 0xa2, 0xc8, 0xbd, 0x97, 0xb0, 0x04, 0xbe, 0x28, 0x0d, 0x6e, 0xbe,
  0x15, 0xe8, 0xa9, 0x3e, 0x23, 0xe0, 0xc8, 0xbc, 0xae, 0xd6, 0xe6, 0xbb,
  0x31, 0x0b, 0x33, 0x3d, 0x08, 0xbf, 0xa7, 0x3e, 0x07, 0x8f, 0x25, 0xbd,
  0x72, 0xfe, 0xfd, 0xbb, 0xd3, 0x02, 0xd2, 0x3c, 0x22, 0x27, 0x2f, 0xbe,
  0x3d, 0x9b, 0x24, 0x3e, 0xdc, 0x1a, 0x12, 0xbc, 0xe8, 0x97, 0x5b, 0xbd,
  0x8c, 0x04, 0x46, 0x3e, 0xc6, 0xcf, 0x23, 0xbe, 0xcb, 0x1b, 0x50, 0xbd,
  0x12, 0x80, 0x0e, 0xbe, 0x47, 0xb7, 0x41, 0xbd, 0x27, 0xb3, 0x12, 0xbd,
  0x60, 0x6b, 0x19, 0x3f, 0xe1, 0xf6, 0xed, 0x3e, 0x0c, 0x3a, 0x15, 0xbe,
  0xcc, 0x48, 0xf0, 0x3e, 0x00, 0x5f, 0xa6, 0x3c, 0x6c, 0x7b, 0xad, 0x3b,
  0xfb, 0x41, 0x0d, 0x3d, 0x9e, 0x15, 0xdf, 0xbc, 0x7b, 0x20, 0x05, 0x3f,
  0x20, 0xe1, 0xd3, 0x3e, 0xaa, 0xd0, 0x89, 0x3e, 0x58, 0xab, 0x2c, 0x3f,
  0xb3, 0xdc, 0x83, 0x3e, 0x61, 0x96, 0xda, 0xbc, 0xfc, 0xfa, 0x14, 0xbd,
  0xfc, 0x25, 0xa8, 0xbd, 0x68, 0xa3, 0x8b, 0xbd, 0x04, 0x6a, 0x54, 0xbd,
  0xc1, 0x51, 0xee, 0x3e, 0x7b, 0x77, 0xa2, 0x3e, 0xf1, 0x89, 0x12, 0xbd,
  0x73, 0xa6, 0x13, 0xbf, 0x08, 0x93, 0xc8, 0x3e, 0x4c, 0x42, 0xc0, 0x3c,
  0xcb, 0x77, 0xc9, 0x3e, 0x06, 0xa0, 0xc1, 0x3e, 0x40, 0x19, 0x51, 0xbe,
  0x6d, 0x50, 0x1b, 0xbe, 0xc7, 0x5c, 0x5b, 0xbe, 0x66, 0x7e, 0x44, 0x3e,
  0x4f, 0xfd, 0x49, 0xbe, 0x54, 0x46, 0x6c, 0xbe, 0x30, 0x64, 0x9c, 0xbf,
  0x99, 0x4a, 0xe7, 0xbe, 0x83, 0xd4, 0x41, 0xbe, 0xb0, 0x7a, 0x7b, 0x3f,
  0x81, 0xfb, 0x81, 0xbf, 0x96, 0x3c, 0x59, 0xbe, 0xca, 0x2b, 0xc5, 0xbe,
  0x58, 0x09, 0xaf, 0xbd, 0x48, 0x4b, 0x0c, 0xbf, 0x9e, 0xfe, 0xad, 0xbd,
  0x69, 0x76, 0x9f, 0xbe, 0xe7, 0x48, 0xff, 0xbe, 0x30, 0x32, 0x2e, 0xbd,
  0xe1, 0xaf, 0x8c, 0xbe, 0xdc, 0x86, 0x3c, 0xbe, 0x09, 0x8e, 0x97, 0x3d,
  0x15, 0x4a, 0x14, 0x3e, 0xdf, 0x2d, 0x2a, 0xbf, 0x5b, 0xf5, 0x80, 0xbe,
  0x9d, 0x25, 0x54, 0x3e, 0x47, 0xb3, 0x13, 0x3d, 0xfc, 0xa1, 0x52, 0xbd,
  0x72, 0x3f, 0x26, 0x3f, 0xc3, 0xaf, 0x6c, 0xbd, 0x74, 0x7f, 0x36, 0xbe,
  0xe2, 0xb1, 0x00, 0xbd, 0xee, 0x73, 0x6b, 0xbe, 0xfd, 0xd8, 0x71, 0x3e,
  0x71, 0x7d, 0x49, 0x3f, 0x96, 0xd5, 0xca, 0xbe, 0x15, 0x91, 0x54, 0xbf,
  0x63, 0xbe, 0x79, 0xbe, 0xcf, 0x68, 0x7a, 0xbd, 0xfb, 0xa9, 0x1c, 0x3e,
  0xf7, 0x52, 0x31, 0xbd, 0x9c, 0xd1, 0xb6, 0xbe, 0xbc, 0x79, 0x93, 0x3e,
  0x3a, 0x93, 0x09, 0xbf, 0xe9, 0x4d, 0xd9, 0xbd, 0xf3, 0xdb, 0x7a, 0xbe,
  0x5f, 0x84, 0x73, 0x3e, 0xda, 0xbf, 0xea, 0xbc, 0xcd, 0x44, 0xef, 0xbd,
  0x11, 0x20, 0x24, 0xbe, 0x1d, 0x6e, 0x93, 0xbe, 0x46, 0x7c, 0x14, 0xbe,
  0x9e, 0xfc, 0x85, 0xbc, 0x51, 0x9c, 0xcf, 0xbd, 0x51, 0x97, 0xb1, 0xbc,
  0x44, 0xcd, 0xc1, 0xbe, 0x39, 0x3b, 0xc8, 0xbd, 0x7a, 0x72, 0xec, 0x3d,
  0x88, 0x23, 0xe1, 0xbe, 0x8c, 0x28, 0x13, 0xbe, 0xd5, 0x8c, 0x89, 0xbe,
  0x00, 0x69, 0x76, 0x3e, 0xa5, 0xa7, 0x62, 0x3e, 0x52, 0xe0, 0x22, 0xbd,
  0xdb, 0x0f, 0x65, 0x3e, 0x57, 0xcb, 0x10, 0x3e, 0x1e, 0x09, 0xf5, 0xbd,
  0x62, 0xa8, 0x33, 0x3d, 0xfd, 0x05, 0x9f, 0xbe, 0xdb, 0xff, 0x83, 0xbe,
  0xc3, 0x09, 0x15, 0x3e, 0x83, 0xcd, 0x59, 0xbe, 0xd0, 0xa9, 0x4f, 0xbe,
  0xcf, 0xf4, 0x86, 0xbe, 0xd8, 0xee, 0x1b, 0xbe, 0x7d, 0xf3, 0xae, 0xbd,
  0x7b, 0xd7, 0x6f, 0x3e, 0xb4, 0x96, 0x04, 0xbe, 0x7a, 0x1f, 0xa7, 0xbd,
  0xbe, 0xe6, 0xe1, 0xbd, 0xbf, 0x41, 0x20, 0xbe, 0x73, 0xe1, 0xaf, 0x3b,
  0x04, 0xbd, 0xc2, 0xbd, 0xe0, 0xc9, 0x2b, 0xbe, 0x62, 0x66, 0x41, 0xbe,
  0xa8, 0x92, 0x62, 0xbc, 0xe2, 0x84, 0x97, 0xbe, 0x90, 0x28, 0x30, 0xbe,
  0x8c, 0xc5, 0xb6, 0xbe, 0xba, 0xfd, 0x04, 0x3d, 0x39, 0xfe, 0x98, 0xbe,
  0x50, 0x3f, 0x29, 0xbe, 0x8c, 0x67, 0x40, 0x3e, 0xbb, 0x94, 0x94, 0xbe,
  0xcf, 0x6a, 0xd8, 0xbd, 0x0d, 0x0a, 0xa4, 0x3d, 0x8e, 0x1d, 0xee, 0xbd,
  0xca, 0x93, 0xa9, 0x3e, 0x61, 0x4b, 0x3e, 0x3e, 0x76, 0xe5, 0x03, 0xbd,
  0x64, 0xd3, 0xc9, 0xbd, 0x62, 0x41, 0x93, 0xbd, 0xf5, 0x72, 0x08, 0xbe,
  0xed, 0x39, 0xcf, 0xbd, 0xcf, 0x62, 0x7c, 0xbe, 0xb3, 0xa3, 0xe1, 0xbe,
  0xa8, 0x1c, 0xdb, 0x3c, 0x0b, 0xa3, 0x69, 0xbe, 0xf1, 0xdd, 0xd5, 0xbe,
  0x21, 0xbc, 0x88, 0xbd, 0x55, 0x76, 0xd8, 0xbd, 0x9d, 0xaa, 0x93, 0xbe,
  0x98, 0x93, 0x49, 0xbe, 0x61, 0xc2, 0x29, 0x3d, 0x98, 0x7b, 0x31, 0xbc,
  0x8b, 0xcb, 0x97, 0xbd, 0xe9, 0x34, 0x84, 0x3e, 0x90, 0x12, 0x11, 0x3e,
  0x73, 0x78, 0xb1, 0xbe, 0x66, 0x1b, 0x82, 0xbe, 0x73, 0x0d, 0x55, 0xbe,
  0x16, 0xcc, 0x40, 0x3d, 0x12, 0x05, 0x0d, 0x3f, 0x32, 0xae, 0x27, 0x3e,
  0x19, 0x64, 0x00, 0xbe, 0x7c, 0xd6, 0x66, 0xbe, 0xc0, 0x6d, 0xcb, 0xbe,
  0x26, 0x9b, 0xbc, 0x3d, 0xd2, 0x1f, 0xb8, 0xbe, 0xe2, 0x16, 0x4e, 0x3e,
  0xea, 0x38, 0x08, 0x3e, 0x5c, 0x71, 0x3e, 0x3f, 0xaa, 0x66, 0xc2, 0xbc,
  0x30, 0x78, 0xf2, 0xbf, 0x0d, 0x6d, 0x92, 0x3e, 0x82, 0x40, 0x36, 0x3f,
  0x03, 0xf5, 0x17, 0x40, 0x40, 0xd5, 0xa0, 0xbf, 0xf0, 0x2e, 0xd0, 0xbd,
  0xea, 0xa5, 0x0c, 0xbe, 0xce, 0xb4, 0xdd, 0xbd, 0x08, 0x19, 0x29, 0x3f,
  0x81, 0xbb, 0x71, 0x3f, 0xf5, 0x4b, 0x58, 0xbe, 0x50, 0x83, 0x51, 0x3f,
  0x25, 0xe5, 0x4d, 0x3d, 0x2d, 0x05, 0x91, 0xbc, 0xe1, 0x54, 0x43, 0xbf,
  0x53, 0xa0, 0x30, 0xbf, 0xc7, 0xa3, 0x19, 0xbe, 0x5f, 0x97, 0xc4, 0xbc,
  0x56, 0xb3, 0x42, 0x3e, 0x63, 0x98, 0x49, 0xbf, 0x8d, 0xaf, 0x2b, 0x3f,
  0x3b, 0x43, 0x2c, 0x3e, 0xc5, 0x77, 0x63, 0x3f, 0xbf, 0x87, 0x7a, 0xbe,
  0x04, 0x92, 0xa5, 0xbe, 0x72, 0x40, 0x01, 0x3e, 0x5f, 0x29, 0x93, 0xbe,
  0x08, 0xc3, 0x0d, 0xc0, 0x27, 0xec, 0x79, 0xbe, 0xdf, 0xed, 0x15, 0xbf,
  0xb3, 0x3e, 0x1a, 0x3e, 0x30, 0x71, 0xa2, 0x3d, 0xed, 0xf7, 0x0e, 0x3f,
  0x0c, 0xbb, 0x88, 0x3e, 0x6b, 0xe9, 0x58, 0x3e, 0x63, 0x11, 0x9c, 0x3d,
  0x54, 0x45, 0x90, 0xbe, 0xce, 0x2c, 0x4f, 0x3e, 0x1b, 0x34, 0x85, 0x3d,
  0x92, 0x1e, 0xee, 0x3d, 0xe6, 0x47, 0x64, 0x3d, 0x2e, 0x2b, 0x06, 0x3e,
  0x52, 0xaa, 0x16, 0x3e, 0xd7, 0x59, 0x29, 0xbc, 0x28, 0x93, 0x74, 0x3e,
  0xd9, 0x51, 0x0f, 0x3e, 0x86, 0x70, 0xe1, 0xbe, 0x4a, 0x74, 0x08, 0xbe,
  0x76, 0x6e, 0x30, 0x3e, 0x6f, 0x30, 0x85, 0x3d, 0x4c, 0x42, 0x34, 0x3e,
  0x44, 0x61, 0x6a, 0x3e, 0x0a, 0x8e, 0x92, 0x3e, 0x71, 0x2c, 0x5b, 0x3d,
  0x4c, 0xbf, 0xf3, 0xbc, 0x6d, 0x73, 0x14, 0x3e, 0xd4, 0x39, 0x7c, 0x3e,
  0x6d, 0xab, 0xa6, 0x3d, 0x5b, 0x63, 0x3d, 0x3e, 0x6d, 0x86, 0xb6, 0x3d,
  0xe1, 0x3e, 0xa0, 0xbe, 0x88, 0x7e, 0xd5, 0x3d, 0x64, 0xd0, 0xbf, 0x3d,
  0xc3, 0x67, 0xdb, 0x3d, 0xb3, 0x25, 0x15, 0x3e, 0x0e, 0xa6, 0x2a, 0x3e,
  0x3b, 0xbc, 0xe8, 0xbc, 0xee, 0x07, 0x32, 0x3d, 0x4c, 0x9a, 0x8e, 0x3d,
  0x27, 0xbc, 0xce, 0x3d, 0x2e, 0x40, 0x19, 0x3e, 0xf2, 0x8d, 0xd6, 0x3d,
  0xef, 0x25, 0x08, 0x3e, 0x95, 0x97, 0x81, 0x3e, 0x4f, 0x72, 0x13, 0x3d,
  0xb0, 0x02, 0x39, 0x3f, 0x4d, 0xc5, 0xbb, 0x3e, 0x70, 0x68, 0x85, 0x3b,
  0x58, 0x43, 0xbc, 0x3d, 0xd1, 0x4f, 0x99, 0x3e, 0x56, 0xbe, 0x06, 0xbd,
  0xbb, 0xd6, 0xc9, 0xbd, 0x03, 0x2b, 0x06, 0x3f, 0x46, 0x0f, 0x40, 0x3d,
  0x8c, 0xce, 0x86, 0x3d, 0xab, 0x00, 0x08, 0x3d, 0x0d, 0x9f, 0xcd, 0x3d,
  0x5a, 0x7f, 0xdb, 0xbd, 0x31, 0xa0, 0xc2, 0x3e, 0x61, 0x18, 0x87, 0xbd,
  0xe6, 0xa0, 0xbc, 0x3d, 0x51, 0x8c, 0x8c, 0x3d, 0x30, 0x20, 0x93, 0x3e,
  0x56, 0x96, 0x1a, 0x3f, 0x89, 0x60, 0xb4, 0x3e, 0x7c, 0xfb, 0x5d, 0x3e,
  0x40, 0x2e, 0x2d, 0x3f, 0x0e, 0x05, 0x8f, 0x3e, 0x79, 0x5b, 0xeb, 0x3d,
  0xde, 0x4c, 0x84, 0xbd, 0xbd, 0x1a, 0xa9, 0x3d, 0x1e, 0xd7, 0x8b, 0x3d,
  0xc7, 0x8b, 0x8c, 0x3e, 0xdc, 0x4e, 0x91, 0x3e, 0x8e, 0x62, 0x15, 0xbe,
  0xd0, 0x69, 0xb9, 0x3d, 0x4c, 0xfe, 0x81, 0x3e, 0x50, 0x2f, 0x1c, 0xbf,
  0xc5, 0x38, 0xe0, 0x3e, 0x91, 0x27, 0x8b, 0x3e, 0x8d, 0x33, 0xed, 0xbd,
  0x54, 0xc8, 0x63, 0x3e, 0x57, 0x1f, 0x12, 0xbe, 0x8c, 0x34, 0xa6, 0xbf,
  0xec, 0x4f, 0x27, 0xbd, 0x0d, 0x7d, 0x3c, 0xbf, 0x2f, 0x82, 0x38, 0xbe,
  0x67, 0xf8, 0x24, 0xbf, 0xc1, 0x17, 0xa5, 0x3e, 0x6b, 0x0b, 0x33, 0xbf,
  0xc2, 0x50, 0xc1, 0x3d, 0x87, 0x78, 0x75, 0xbe, 0x7b, 0xbd, 0xa7, 0xbf,
  0x81, 0xb5, 0x11, 0xbe, 0xd2, 0x3b, 0xdc, 0xbe, 0x1b, 0xfe, 0x44, 0x3f,
  0x10, 0x78, 0x79, 0x3d, 0x40, 0x8d, 0x1b, 0x3f, 0x15, 0x2d, 0xf4, 0xbe,
  0x5a, 0x3b, 0x1e, 0xbe, 0x0a, 0xe7, 0x35, 0x3e, 0x44, 0x3e, 0xea, 0x3e,
  0xbf, 0xb7, 0xf4, 0x3c, 0x5f, 0x6e, 0xcd, 0xbf, 0x1b, 0xec, 0x3e, 0xbe,
  0x46, 0x77, 0x9c, 0xbe, 0x27, 0x38, 0xf2, 0xbd, 0x62, 0xaf, 0x4c, 0xbe,
  0xc0, 0x1c, 0xf9, 0xbd, 0xeb, 0x20, 0x8f, 0xbf, 0xd6, 0xe6, 0xa6, 0xbe,
  0xf9, 0x0c, 0x62, 0x3f, 0x23, 0xb3, 0xbc, 0xbd, 0x7f, 0xac, 0x29, 0x3e,
  0xbe, 0x13, 0x0c, 0xbf, 0x45, 0x1a, 0xf6, 0x3d, 0xa5, 0xa4, 0x99, 0xbe,
  0x84, 0x46, 0x4f, 0xbe, 0xa6, 0x78, 0xfc, 0xbe, 0xee, 0x09, 0x4f, 0x3f,
  0xc2, 0x8e, 0x02, 0x3f, 0xe2, 0xcd, 0x9d, 0xbd, 0xf9, 0xaa, 0xb3, 0x3e,
  0xa2, 0xe8, 0x15, 0xbf, 0x13, 0xfd, 0x39, 0xbe, 0x22, 0x1b, 0xb6, 0xbe,
  0x8d, 0x97, 0x1d, 0xbe, 0xea, 0x12, 0xce, 0xbe, 0x7b, 0x52, 0xbb, 0x3d,
  0xfc, 0x4b, 0x0f, 0xbe, 0xe9, 0xa8, 0x24, 0xbe, 0x36, 0xea, 0x65, 0xbd,
  0xd1, 0xd3, 0x71, 0x3d, 0x9e, 0x2b, 0xa8, 0x3c, 0x88, 0xc6, 0xc0, 0xbd,
  0x0f, 0xb2, 0xce, 0x3d, 0x3d, 0xc8, 0x82, 0xbd, 0x86, 0x20, 0x9c, 0xbd,
  0x69, 0x6e, 0x81, 0x3e, 0x16, 0x65, 0xa0, 0xbe, 0xf0, 0x21, 0x0b, 0xbe,
  0xf0, 0x34, 0xe7, 0x3d, 0xa6, 0x11, 0x67, 0xbc, 0x2c, 0x72, 0xf2, 0x3d,
  0x57, 0x52, 0xf9, 0xbd, 0x7c, 0xbb, 0xb5, 0x3d, 0x9a, 0x12, 0x59, 0xbe,
  0x5b, 0xa9, 0xb4, 0xbd, 0xa9, 0x01, 0x38, 0xbd, 0xaa, 0x02, 0x8a, 0xbe,
  0x52, 0xcf, 0x52, 0xbe, 0x21, 0xad, 0x84, 0xbe, 0x28, 0x2b, 0x12, 0xbf,
  0xe8, 0x64, 0x58, 0xbe, 0xb7, 0xda, 0x72, 0xbb, 0x0b, 0x01, 0x0d, 0xbe,
  0x52, 0xfd, 0x82, 0xbd, 0x75, 0x62, 0x57, 0xbc, 0xab, 0x34, 0xf0, 0xbd,
  0x78, 0xc6, 0x62, 0x3a, 0xc3, 0x69, 0x49, 0x3c, 0x44, 0x62, 0x14, 0xbe,
  0x1f, 0x5c, 0x21, 0x3d, 0x44, 0xc9, 0xc3, 0x3c, 0x25, 0x58, 0x92, 0xbd,
  0xe8, 0x6c, 0x1a, 0xbe, 0x5f, 0x76, 0x76, 0x3d, 0x43, 0x38, 0xe9, 0x3d,
  0xa7, 0xe6, 0x90, 0xbe, 0x5c, 0x94, 0xb6, 0xbe, 0x4a, 0x82, 0x4f, 0xbd,
  0x2b, 0x74, 0xf7, 0xbd, 0x55, 0xb5, 0x14, 0x3c, 0xcc, 0x80, 0x6c, 0xbe,
  0xda, 0x14, 0x98, 0x3d, 0x7b, 0xb8, 0x4b, 0x3c, 0x39, 0x97, 0xdb, 0x3b,
  0xc2, 0x34, 0x71, 0x3e, 0x6f, 0x87, 0xae, 0x3e, 0xdc, 0x75, 0xbb, 0xbc,
  0xde, 0x2b, 0xcd, 0x3d, 0xa8, 0x27, 0xa8, 0xbd, 0x3a, 0x6e, 0x66, 0x3d,
  0x67, 0xb1, 0x4f, 0xbd, 0x9b, 0x33, 0x0f, 0x3e, 0xf1, 0x5e, 0x15, 0x3e,
  0xe1, 0x65, 0xbc, 0xbe, 0xe4, 0xa1, 0xa1, 0x3d, 0x11, 0xcc, 0x44, 0x3e,
  0xfb, 0xad, 0x45, 0x3d, 0xb5, 0x5a, 0x8a, 0x3c, 0x2e, 0x9e, 0x3e, 0xbc,
  0x97, 0xe4, 0x8d, 0xbd, 0x1f, 0x82, 0x48, 0x3d, 0x3a, 0x54, 0xa2, 0xbe,
  0xba, 0x50, 0x6e, 0x3e, 0x79, 0x55, 0x1e, 0xbd, 0x02, 0x9d, 0x92, 0xbe,
  0xa1, 0x26, 0x36, 0xbf, 0xf0, 0xaf, 0x4d, 0xbe, 0xde, 0xd5, 0xec, 0x3d,
  0xfc, 0xc7, 0xd7, 0x3d, 0x8b, 0x05, 0xb9, 0xbe, 0x72, 0xae, 0xa5, 0x3d,
  0x43, 0x7e, 0xee, 0x3d, 0xf8, 0xb1, 0x26, 0x3e, 0x70, 0x00, 0xa9, 0xbf,
  0xc3, 0x4c, 0xaf, 0xbe, 0x39, 0x1c, 0x3b, 0xbd, 0x25, 0x62, 0xae, 0xbc,
  0x87, 0xb4, 0x23, 0x3e, 0xb7, 0xbc, 0x03, 0x3f, 0x9a, 0x57, 0x93, 0x3e,
  0xd5, 0x13, 0x51, 0x3e, 0xe0, 0xce, 0xb1, 0x3d, 0x15, 0x2f, 0x1c, 0xbd,
  0xe8, 0x3d, 0x74, 0xbd, 0x25, 0x6b, 0x7d, 0x3f, 0x45, 0xda, 0x46, 0x3f,
  0x44, 0x41, 0xe5, 0x3e, 0xbe, 0xc8, 0x05, 0x3f, 0xdc, 0x01, 0x58, 0x3e,
  0x22, 0xe3, 0x08, 0x3f, 0x3d, 0xbe, 0xa7, 0xbe, 0x68, 0x3e, 0x34, 0xbf,
  0x4b, 0xea, 0x5f, 0x3e, 0x86, 0xfa, 0x03, 0xbe, 0x4c, 0x7e, 0xd7, 0xbe,
  0x35, 0xb2, 0xdb, 0xbe, 0xfa, 0x0e, 0x9d, 0xbc, 0x3e, 0x3c, 0xc7, 0xbe,
  0x26, 0x5f, 0xde, 0x3e, 0x90, 0x04, 0xa0, 0x3d, 0x06, 0x6f, 0x75, 0x3f,
  0x65, 0x17, 0x0d, 0xbe, 0xc5, 0xaa, 0x69, 0x3e, 0x7f, 0xb5, 0x35, 0xbe,
  0x3a, 0x72, 0x63, 0xbc, 0xf4, 0xda, 0x90, 0xbf, 0x60, 0x20, 0xe4, 0xbd,
  0xde, 0xb4, 0x0b, 0xbe, 0xe0, 0x92, 0xff, 0xbf, 0x08, 0x2a, 0x23, 0xbf,
  0xa7, 0xd7, 0xa2, 0x3e, 0x53, 0xfa, 0x2e, 0xbe, 0x50, 0xbd, 0xea, 0xbd,
  0x22, 0x44, 0x19, 0x3f, 0x1f, 0x50, 0x67, 0x3e, 0x26, 0x65, 0x01, 0xbc,
  0xb9, 0xe3, 0x92, 0xbd, 0xbd, 0xb5, 0x7f, 0x3e, 0x4e, 0xfe, 0xea, 0xbd,
  0x79, 0xc0, 0xd4, 0xbd, 0xe9, 0x75, 0x13, 0xbe, 0xab, 0xac, 0x6e, 0xbd,
  0xd4, 0xb2, 0xb4, 0x3c, 0x81, 0x97, 0xf2, 0xbc, 0x44, 0x4f, 0xab, 0x3e,
  0x32, 0xf9, 0x01, 0x3e, 0x91, 0xd0, 0x38, 0xbd, 0x16, 0xbd, 0x99, 0x3e,
  0xcc, 0x67, 0x0a, 0xbf, 0x0c, 0x76, 0x8d, 0x3c, 0x3b, 0x05, 0x9b, 0xbd,
  0xd3, 0xa8, 0x06, 0xbe, 0xa8, 0xd3, 0xb3, 0xbe, 0x5d, 0x4b, 0xa9, 0x3e,
  0x01, 0xb7, 0x87, 0xbe, 0x92, 0x03, 0x93, 0xbd, 0x23, 0x69, 0x99, 0xbd,
  0xc4, 0xdb, 0x67, 0xbf, 0x4d, 0x52, 0x02, 0xbd, 0x78, 0xc9, 0x7d, 0x3c,
  0x62, 0xb4, 0x4e, 0xbc, 0x3d, 0x5a, 0x42, 0xbe, 0x23, 0xf8, 0xe7, 0xbd,
  0x23, 0x24, 0x1f, 0xbd, 0x2e, 0x77, 0xb0, 0xbd, 0x4e, 0x39, 0x63, 0xbc,
  0xcd, 0xea, 0xb1, 0xbd, 0x19, 0xad, 0x1c, 0xbd, 0xcd, 0x9b, 0x9d, 0xbc,
  0x3b, 0x8b, 0x04, 0xbe, 0x66, 0x99, 0x7a, 0x3d, 0x94, 0x46, 0xb4, 0xbd,
  0xd2, 0x1b, 0x24, 0xbd, 0xfe, 0xa7, 0x91, 0xbd, 0xc2, 0x00, 0x91, 0xbd,
  0x68, 0x1c, 0x50, 0xbe, 0x25, 0xa8, 0xad, 0x3e, 0x2f, 0x33, 0xa3, 0x3e,
  0x01, 0x46, 0x9b, 0xbd, 0xee, 0x8d, 0x89, 0xbd, 0x26, 0x57, 0x24, 0x3e,
  0x20, 0x09, 0x11, 0xbe, 0xa4, 0x10, 0x3c, 0xbd, 0xaa, 0xe3, 0x3c, 0x3e,
  0x1e, 0x4c, 0x8e, 0xbd, 0x53, 0x1f, 0xc8, 0xbd, 0xe7, 0x1a, 0x0c, 0xbe,
  0xb4, 0x64, 0x91, 0x3e, 0x80, 0x0c, 0x46, 0x3e, 0xaf, 0x98, 0x5d, 0x3e,
  0xba, 0xdd, 0xd7, 0x3d, 0x67, 0x9c, 0xa5, 0xbd, 0x3f, 0x0c, 0x62, 0xbd,
  0x6c, 0x88, 0x98, 0x3e, 0xd4, 0x49, 0xf0, 0x3e, 0x35, 0x56, 0x98, 0x3e,
  0x26, 0xb3, 0x4b, 0x3e, 0xcd, 0xea, 0x84, 0x3e, 0x75, 0xe3, 0xb8, 0x3e,
  0xcc, 0xf2, 0x84, 0xbe, 0xae, 0x98, 0x0d, 0x3c, 0xd1, 0x70, 0xb0, 0xbc,
  0xdd, 0xb8, 0x5b, 0xbc, 0xe8, 0x6d, 0xe9, 0xbd, 0xba, 0xdf, 0x82, 0xbe,
  0x2c, 0xee, 0x91, 0x3e, 0x19, 0xa2, 0x0d, 0xbe, 0x5e, 0x4c, 0xb8, 0x3e,
  0x31, 0xcb, 0x0e, 0xbe, 0xff, 0xe7, 0xc9, 0x3e, 0x11, 0xf2, 0x5c, 0x3e,
  0xae, 0xaa, 0x13, 0xbd, 0xc1, 0xd0, 0x8e, 0x3e, 0xec, 0x65, 0x0a, 0xbe,
  0x88, 0x3b, 0xbb, 0x3e, 0x0c, 0x03, 0x9a, 0x3b, 0x37, 0x8d, 0x37, 0xbe,
  0x10, 0x4b, 0x32, 0xbe, 0x89, 0xcb, 0x58, 0xbf, 0xd5, 0x5e, 0x7f, 0xbd,
  0x3b, 0xcd, 0x58, 0xbd, 0x97, 0xcc, 0x72, 0x3d, 0x0e, 0x86, 0xb8, 0x3e,
  0x03, 0x1d, 0x74, 0xbe, 0x90, 0x7b, 0xc1, 0x3e, 0xef, 0xa5, 0x9f, 0x3b,
  0x27, 0x14, 0xc2, 0x3e, 0x36, 0xac, 0x83, 0xbc, 0x4b, 0x26, 0x98, 0xbc,
  0x78, 0xd3, 0xea, 0x3d, 0x86, 0x5a, 0x48, 0x3e, 0xd6, 0xad, 0x7d, 0xbd,
  0x50, 0x82, 0x94, 0x3e, 0xf5, 0xd2, 0x0f, 0xbf, 0xef, 0x5d, 0x18, 0x3f,
  0x72, 0xf8, 0x9e, 0xbe, 0x39, 0xe0, 0x95, 0xbe, 0x8b, 0x0f, 0x32, 0x3e,
  0xc6, 0xb3, 0x33, 0xbe, 0x1c, 0xcd, 0x89, 0x3f, 0xff, 0x8b, 0x05, 0x3f,
  0xa5, 0x85, 0x53, 0xbf, 0xb2, 0x91, 0x79, 0x3f, 0xdd, 0x77, 0x7c, 0xbe,
  0xf2, 0x28, 0x95, 0x3e, 0xca, 0x55, 0x1c, 0x3e, 0xf5, 0xd7, 0x8e, 0xbe,
  0x15, 0x83, 0x21, 0xbe, 0xdf, 0x2a, 0x0d, 0xbf, 0xb2, 0x20, 0x9e, 0xbe,
  0x66, 0xef, 0x6c, 0xbe, 0xe7, 0xf8, 0x64, 0xbe, 0x37, 0x7b, 0x56, 0x3e,
  0xc4, 0x56, 0x28, 0x3e, 0xef, 0x2f, 0xbb, 0xbe, 0x14, 0x30, 0x30, 0xbe,
  0xe7, 0x83, 0x29, 0x3d, 0x7a, 0x05, 0x2e, 0xbd, 0x31, 0xde, 0x0d, 0xbd,
  0x9a, 0x6d, 0xa3, 0xbd, 0x02, 0x8a, 0x18, 0xbe, 0xe9, 0xae, 0x37, 0x3c,
  0x68, 0xe5, 0x61, 0xbe, 0x7b, 0xe9, 0x1e, 0xbe, 0x28, 0x17, 0x4c, 0xbe,
  0xd8, 0x94, 0x61, 0xbe, 0x5f, 0xc8, 0x60, 0x3d, 0x89, 0xae, 0xd9, 0xbd,
  0x9e, 0x11, 0x43, 0xbe, 0x5e, 0x31, 0x36, 0x3e, 0x39, 0x86, 0x49, 0x3e,
  0x9b, 0x5e, 0x24, 0xbd, 0xd3, 0x45, 0x22, 0xbe, 0xbc, 0x7c, 0x5b, 0x3d,
  0x7a, 0xcd, 0xc7, 0xbe, 0x21, 0x2f, 0x01, 0xbe, 0x90, 0x11, 0xb6, 0xbe,
  0xce, 0x6f, 0x49, 0xbe, 0x3b, 0xef, 0xd2, 0xbd, 0xa6, 0xe2, 0x08, 0xbe,
  0x2a, 0x56, 0x87, 0xbd, 0x4a, 0x1a, 0x8a, 0xbd, 0x96, 0x16, 0x10, 0xbd,
  0xb2, 0x99, 0x1f, 0x3e, 0x3d, 0x71, 0xf2, 0xbd, 0x8b, 0x34, 0xb1, 0xbd,
  0x0a, 0xea, 0x04, 0xbe, 0xf4, 0x1c, 0x30, 0xbe, 0x85, 0x9c, 0xe3, 0xbd,
  0x0f, 0xba, 0x38, 0xbe, 0x62, 0xd8, 0xe7, 0xbd, 0x48, 0x25, 0xbc, 0xbd,
  0x5e, 0x6b, 0x40, 0xbe, 0x49, 0x27, 0x25, 0xbe, 0xad, 0x96, 0x05, 0xbe,
  0x4e, 0xa8, 0x40, 0xbe, 0x10, 0x58, 0xa0, 0xbd, 0xb5, 0x2e, 0x7c, 0xbe,
  0x92, 0x0f, 0xf2, 0xbd, 0xb0, 0xa5, 0xbc, 0x3d, 0xe4, 0x4d, 0xb8, 0xbd,
  0x38, 0x6d, 0x07, 0xbe, 0x10, 0xbf, 0x59, 0x3d, 0x97, 0xa1, 0x63, 0xbe,
  0x03, 0x03, 0x31, 0xbf, 0x42, 0x2a, 0x6b, 0x3c, 0x2a, 0x20, 0xf2, 0xbd,
  0x6e, 0x55, 0x4c, 0xbd, 0x38, 0x0f, 0xbf, 0xbd, 0xe2, 0xb4, 0xba, 0xbe,
  0x0e, 0x2f, 0x62, 0xbe, 0x8b, 0x62, 0xe9, 0xbd, 0xac, 0xaa, 0xe5, 0xbd,
  0xde, 0x1f, 0x51, 0xbe, 0x4b, 0xd3, 0x0b, 0xbe, 0x82, 0x93, 0x33, 0x3d,
  0x3f, 0x1f, 0x33, 0x3e, 0xcd, 0xad, 0x80, 0xbb, 0x4e, 0xf5, 0x27, 0xbe,
  0x22, 0xf5, 0x26, 0x3e, 0x24, 0x72, 0x9a, 0x3e, 0x83, 0xb5, 0xac, 0xbe,
  0xf1, 0xb6, 0x50, 0xbe, 0xaa, 0xf2, 0xb8, 0xbd, 0x55, 0xdb, 0x38, 0xbe,
  0x60, 0xa7, 0x4b, 0xbd, 0xe4, 0x82, 0xb3, 0xbe, 0x91, 0xc1, 0x94, 0xbd,
  0x13, 0xc8, 0x6b, 0xbd, 0xd3, 0xd0, 0x80, 0x3d, 0xcb, 0xfc, 0x5e, 0xbd,
  0xfc, 0x5b, 0x80, 0x3e, 0x1e, 0x1b, 0x66, 0x3d, 0x92, 0x69, 0x13, 0xbe,
  0x27, 0x5e, 0x89, 0x3e, 0x0f, 0xcc, 0xa9, 0xbc, 0x96, 0x5c, 0x70, 0x3f,
  0xa4, 0x7a, 0x01, 0x3f, 0xe2, 0x97, 0xa3, 0x3d, 0xd0, 0x97, 0x8e, 0xbe,
  0x6b, 0x87, 0x95, 0xbf, 0xcb, 0xad, 0x77, 0x3e, 0xf0, 0x5e, 0x67, 0xbf,
  0x0c, 0x1c, 0xb6, 0xbc, 0x3e, 0x94, 0x82, 0x3c, 0x2c, 0x41, 0xd6, 0xbe,
  0xe0, 0xa0, 0x6e, 0xbe, 0x1a, 0x21, 0xe5, 0xbe, 0xc0, 0x98, 0x1b, 0x3e,
  0x97, 0xfd, 0x0a, 0xbe, 0x73, 0x11, 0x42, 0x3e, 0x9d, 0xca, 0x8f, 0xbd,
  0xe0, 0x4c, 0x68, 0x3d, 0x57, 0x9e, 0xb7, 0x3d, 0x67, 0x70, 0xaf, 0xbe,
  0x8d, 0x13, 0x68, 0xbe, 0x01, 0xbb, 0x92, 0xbe, 0x6a, 0xb1, 0x14, 0xbf,
  0x63, 0x73, 0x71, 0xbe, 0x78, 0xd3, 0xc3, 0x3e, 0x21, 0x20, 0x12, 0xbd,
  0x21, 0x5a, 0xa3, 0x3d, 0x30, 0x54, 0xb4, 0x3d, 0x52, 0x6c, 0x6d, 0x3e,
  0x82, 0xc8, 0xd3, 0xbe, 0x1a, 0x23, 0x0e, 0x3e, 0xe6, 0xa8, 0xa6, 0xbf,
  0x3f, 0x85, 0x32, 0x3d, 0x78, 0x4b, 0x2a, 0x3f, 0x52, 0xea, 0x49, 0x3e,
  0xbb, 0xf1, 0x37, 0xbf, 0x4d, 0xad, 0xa2, 0xbe, 0xff, 0xe1, 0xf2, 0x3e,
  0x87, 0x7d, 0xa1, 0x3e, 0x73, 0x8f, 0x9a, 0xbe, 0xfd, 0xef, 0xbb, 0x3d,
  0xe7, 0x83, 0x81, 0x3e, 0x75, 0xa8, 0xed, 0xbe, 0x05, 0x0d, 0x30, 0x3e,
  0x6d, 0x23, 0xcf, 0xbd, 0xe2, 0xc3, 0x30, 0x3e, 0x4d, 0x7d, 0xda, 0x3e,
  0x38, 0x1f, 0x71, 0xbe, 0x95, 0x8d, 0x18, 0xbe, 0x30, 0x14, 0xef, 0xbd,
  0xd1, 0xcb, 0xc0, 0xbc, 0xb4, 0x03, 0x9a, 0xbc, 0x06, 0x49, 0x0f, 0xbe,
  0x12, 0x6e, 0xf0, 0x3d, 0xc8, 0xa9, 0x1b, 0x3f, 0xd5, 0xba, 0xf4, 0xbd,
  0x66, 0xf0, 0x6b, 0xbe, 0x05, 0xaf, 0x19, 0xbe, 0xdb, 0x8d, 0x24, 0xbe,
  0x77, 0x30, 0x08, 0xbe, 0x67, 0x69, 0x49, 0xbe, 0xcd, 0x5e, 0x89, 0x3e,
  0x44, 0x68, 0xb4, 0x3e, 0x49, 0xfe, 0x02, 0xbe, 0x0e, 0x05, 0x72, 0x3e,
  0x4f, 0x3f, 0x12, 0xbe, 0x7f, 0x0e, 0xcc, 0xbd, 0xd6, 0x2f, 0xac, 0x3e,
  0x95, 0x3c, 0xbc, 0xbd, 0x24, 0xdf, 0x87, 0x3e, 0x73, 0xd3, 0xff, 0xbe,
  0xb9, 0xaf, 0x70, 0xbe, 0x02, 0xc5, 0xef, 0xbc, 0xb4, 0xa9, 0x17, 0xbd,
  0x44, 0xc1, 0x4e, 0xbe, 0xc2, 0x9e, 0x9b, 0x3c, 0x53, 0xb9, 0x19, 0xbe,
  0xe8, 0xa4, 0x45, 0x3a, 0x0e, 0x3e, 0x74, 0x3d, 0x87, 0x4c, 0x27, 0xbe,
  0x73, 0x92, 0x14, 0xbe, 0x67, 0xf1, 0x79, 0xbe, 0x41, 0x82, 0x93, 0x3c,
  0x4c, 0x72, 0x12, 0xbe, 0xeb, 0xbd, 0x14, 0xbe, 0xaf, 0xfe, 0x33, 0x3e,
  0x9a, 0xd8, 0x4a, 0x3e, 0x0b, 0x76, 0x4b, 0x3f, 0x00, 0x76, 0x52, 0xbe,
  0x0c, 0xf6, 0x7d, 0x3f, 0xe9, 0x76, 0xe7, 0x3d, 0x12, 0x4f, 0x48, 0xbe,
  0xc2, 0x3d, 0xe3, 0x3d, 0x89, 0x34, 0x83, 0xbd, 0xb1, 0x19, 0x8f, 0xbd,
  0xc1, 0x1f, 0x7f, 0x3d, 0xd0, 0x7a, 0x3b, 0x3e, 0x0c, 0x14, 0xa0, 0x3a,
  0xd3, 0xb3, 0xcf, 0x3c, 0x4a, 0xb7, 0x2e, 0xbd, 0xff, 0xd8, 0xaa, 0x3d,
  0x69, 0x66, 0x3d, 0x3c, 0x60, 0xa4, 0xb3, 0x3e, 0x6a, 0x76, 0xc5, 0x3e,
  0x5b, 0x03, 0x48, 0x3e, 0xa3, 0xfe, 0x93, 0x3e, 0x59, 0xb5, 0xa2, 0x3e,
  0x11, 0xb9, 0x05, 0xbe, 0xc1, 0xf9, 0xb6, 0xbd, 0x1e, 0x15, 0x7b, 0x3d,
  0xac, 0x7f, 0x0a, 0xbe, 0x2d, 0xa2, 0xdf, 0x3b, 0x41, 0xd1, 0x5f, 0x3e,
  0xda, 0x05, 0xda, 0x3e, 0x2d, 0x91, 0x3a, 0x3f, 0xe8, 0xa2, 0x51, 0x3f,
  0xc2, 0x4f, 0x5f, 0x3e, 0x69, 0x48, 0x8b, 0xbe, 0x91, 0xc2, 0x90, 0x3e,
  0x16, 0x2a, 0xcc, 0x3e, 0xc1, 0x2f, 0x8c, 0x3e, 0xa7, 0x00, 0x98, 0x3d,
  0x60, 0x5e, 0x02, 0x3f, 0x12, 0xfe, 0xff, 0xff, 0x10, 0x00, 0x00, 0x00,
  0x05, 0x00, 0x00, 0x00, 0x14, 0x00, 0x00, 0x00, 0x2c, 0x00, 0x00, 0x00,
  0x02, 0x00, 0x00, 0x00, 0x0a, 0x00, 0x00, 0x00, 0x7a, 0x00, 0x00, 0x00,
  0x17, 0x00, 0x00, 0x00, 0x73, 0x65, 0x71, 0x75, 0x65, 0x6e, 0x74, 0x69,
  0x61, 0x6c, 0x2f, 0x64, 0x65, 0x6e, 0x73, 0x65, 0x2f, 0x4d, 0x61, 0x74,
  0x4d, 0x75, 0x6c, 0x00, 0xa0, 0xfd, 0xff, 0xff, 0x8e, 0xfe, 0xff, 0xff,
  0x04, 0x00, 0x00, 0x00, 0x28, 0x00, 0x00, 0x00, 0x29, 0x2d, 0x4c, 0x3c,
  0xbf, 0x1a, 0xfe, 0x3d, 0xd3, 0xa9, 0x0c, 0xbe, 0x09, 0x71, 0x12, 0xbe,
  0x3e, 0x7d, 0x1f, 0x3e, 0xec, 0x62, 0x71, 0xbe, 0xc9, 0x34, 0x20, 0x3d,
  0xa2, 0x1f, 0x60, 0xbe, 0xb2, 0x4a, 0x0a, 0xbd, 0xb1, 0x05, 0x88, 0x3e,
  0x86, 0xfe, 0xff, 0xff, 0x10, 0x00, 0x00, 0x00, 0x04, 0x00, 0x00, 0x00,
  0x10, 0x00, 0x00, 0x00, 0x1c, 0x00, 0x00, 0x00, 0x01, 0x00, 0x00, 0x00,
  0x0a, 0x00, 0x00, 0x00, 0x0a, 0x00, 0x00, 0x00, 0x64, 0x65, 0x6e, 0x73,
  0x65, 0x2f, 0x62, 0x69, 0x61, 0x73, 0x00, 0x00, 0x04, 0xfe, 0xff, 0xff,
  0xf2, 0xfe, 0xff, 0xff, 0x04, 0x00, 0x00, 0x00, 0xc8, 0x00, 0x00, 0x00,
  0xfd, 0xb3, 0x73, 0x3d, 0x3a, 0x56, 0x9b, 0x3b, 0x64, 0x48, 0xb3, 0xbe,
  0x1d, 0x94, 0x29, 0x3e, 0x2e, 0x38, 0xcb, 0x3d, 0xe6, 0x11, 0xd0, 0x3d,
  0x4c, 0xc9, 0x8d, 0x3d, 0x3c, 0x36, 0xa0, 0x3a, 0xa5, 0x70, 0xac, 0x3d,
  0x95, 0x64, 0xc1, 0xbe, 0xbf, 0xdd, 0x3b, 0x3e, 0x0e, 0x14, 0x92, 0xbd,
  0xf5, 0x53, 0x8c, 0x3d, 0x33, 0xa7, 0xaa, 0x3d, 0x9e, 0xc0, 0x38, 0xbe,
  0x87, 0x3e, 0x92, 0x3e, 0x72, 0x6c, 0x57, 0xbc, 0x34, 0x28, 0x35, 0xbe,
  0xd2, 0xb2, 0x39, 0xbe, 0xa8, 0xe2, 0x4f, 0x3d, 0xba, 0x7b, 0x28, 0xbe,
  0xc2, 0xf4, 0x81, 0x3d, 0x6b, 0x8f, 0xdc, 0x3d, 0xd5, 0x8f, 0x31, 0xbe,
  0x19, 0xc6, 0xd1, 0xbd, 0x7b, 0x51, 0x58, 0x3e, 0xdb, 0x68, 0x79, 0xbe,
  0xc9, 0xcc, 0xfa, 0xbd, 0x57, 0xc8, 0xb8, 0xbe, 0x3a, 0xee, 0x8d, 0xbe,
  0xe5, 0x7e, 0x2f, 0xbe, 0x4e, 0x7d, 0x8a, 0xbe, 0xa8, 0xd1, 0xad, 0xbd,
  0xc0, 0x7f, 0xfc, 0x3c, 0x5f, 0xdb, 0x80, 0xbd, 0x9f, 0x38, 0xba, 0xbe,
  0xa2, 0xc2, 0x5e, 0x3e, 0x34, 0x0b, 0x37, 0x3e, 0xed, 0xd1, 0xa2, 0x3d,
  0xc1, 0x5c, 0x3d, 0xbe, 0x72, 0x5d, 0x00, 0x3e, 0x55, 0xce, 0x50, 0x3d,
  0x6a, 0xc2, 0x11, 0xbd, 0x9a, 0x22, 0xd7, 0x3d, 0xe0, 0xa6, 0x52, 0x3e,
  0xcb, 0x87, 0x18, 0x3d, 0xef, 0xa4, 0x3d, 0xbb, 0xf0, 0x0d, 0x37, 0xbe,
  0xb0, 0xd9, 0xeb, 0x3d, 0x55, 0xa5, 0x67, 0x3d, 0x8a, 0xff, 0xff, 0xff,
  0x10, 0x00, 0x00, 0x00, 0x03, 0x00, 0x00, 0x00, 0x10, 0x00, 0x00, 0x00,
  0x24, 0x00, 0x00, 0x00, 0x01, 0x00, 0x00, 0x00, 0x32, 0x00, 0x00, 0x00,
  0x0c, 0x00, 0x00, 0x00, 0x64, 0x65, 0x6e, 0x73, 0x65, 0x5f, 0x31, 0x2f,
  0x62, 0x69, 0x61, 0x73, 0x00, 0x00, 0x00, 0x00, 0x04, 0x00, 0x06, 0x00,
  0x04, 0x00, 0x00, 0x00, 0x00, 0x00, 0x06, 0x00, 0x08, 0x00, 0x04, 0x00,
  0x06, 0x00, 0x00, 0x00, 0x04, 0x00, 0x00, 0x00, 0x28, 0x00, 0x00, 0x00,
  0x74, 0xe1, 0x92, 0x3c, 0x5c, 0xc7, 0x5f, 0x3d, 0x20, 0xf2, 0x6d, 0xbc,
  0xae, 0x73, 0xec, 0x3c, 0xc2, 0x3f, 0xc3, 0x3d, 0xa9, 0x25, 0xb8, 0x3d,
  0x4a, 0x72, 0xbf, 0x3c, 0xe4, 0x95, 0x3c, 0x3e, 0xf4, 0x8b, 0x2a, 0x3e,
  0x44, 0x86, 0x9d, 0x3d, 0x00, 0x00, 0x0e, 0x00, 0x14, 0x00, 0x04, 0x00,
  0x00, 0x00, 0x08, 0x00, 0x0c, 0x00, 0x10, 0x00, 0x0e, 0x00, 0x00, 0x00,
  0x10, 0x00, 0x00, 0x00, 0x02, 0x00, 0x00, 0x00, 0x10, 0x00, 0x00, 0x00,
  0x20, 0x00, 0x00, 0x00, 0x01, 0x00, 0x00, 0x00, 0x0a, 0x00, 0x00, 0x00,
  0x0c, 0x00, 0x00, 0x00, 0x64, 0x65, 0x6e, 0x73, 0x65, 0x5f, 0x32, 0x2f,
  0x62, 0x69, 0x61, 0x73, 0x00, 0x00, 0x00, 0x00, 0x90, 0xff, 0xff, 0xff,
  0x14, 0x00, 0x18, 0x00, 0x04, 0x00, 0x00, 0x00, 0x08, 0x00, 0x0c, 0x00,
  0x10, 0x00, 0x00, 0x00, 0x00, 0x00, 0x14, 0x00, 0x14, 0x00, 0x00, 0x00,
  0x14, 0x00, 0x00, 0x00, 0x01, 0x00, 0x00, 0x00, 0x18, 0x00, 0x00, 0x00,
  0x44, 0x00, 0x00, 0x00, 0x34, 0x00, 0x00, 0x00, 0x02, 0x00, 0x00, 0x00,
  0x01, 0x00, 0x00, 0x00, 0x7a, 0x00, 0x00, 0x00, 0x1d, 0x00, 0x00, 0x00,
  0x73, 0x65, 0x72, 0x76, 0x69, 0x6e, 0x67, 0x5f, 0x64, 0x65, 0x66, 0x61,
  0x75, 0x6c, 0x74, 0x5f, 0x64, 0x65, 0x6e, 0x73, 0x65, 0x5f, 0x69, 0x6e,
  0x70, 0x75, 0x74, 0x3a, 0x30, 0x00, 0x00, 0x00, 0x02, 0x00, 0x00, 0x00,
  0xff, 0xff, 0xff, 0xff, 0x7a, 0x00, 0x00, 0x00, 0xfc, 0xff, 0xff, 0xff,
  0x04, 0x00, 0x04, 0x00, 0x04, 0x00, 0x00, 0x00
};
unsigned int model_tflite_len = 11720;
