alignas(8) unsigned char model_tflite[] = {
	0x1c, 0x00, 0x00, 0x00, 0x54, 0x46, 0x4c, 0x33, 0x14, 0x00, 0x20, 0x00,
  0x1c, 0x00, 0x18, 0x00, 0x14, 0x00, 0x10, 0x00, 0x0c, 0x00, 0x00, 0x00,
  0x08, 0x00, 0x04, 0x00, 0x14, 0x00, 0x00, 0x00, 0x1c, 0x00, 0x00, 0x00,
  0x90, 0x00, 0x00, 0x00, 0xc0, 0x00, 0x00, 0x00, 0xb0, 0x25, 0x00, 0x00,
  0xc0, 0x25, 0x00, 0x00, 0x48, 0x2d, 0x00, 0x00, 0x03, 0x00, 0x00, 0x00,
  0x01, 0x00, 0x00, 0x00, 0x10, 0x00, 0x00, 0x00, 0x00, 0x00, 0x0a, 0x00,
  0x10, 0x00, 0x0c, 0x00, 0x08, 0x00, 0x04, 0x00, 0x0a, 0x00, 0x00, 0x00,
  0x0c, 0x00, 0x00, 0x00, 0x1c, 0x00, 0x00, 0x00, 0x38, 0x00, 0x00, 0x00,
  0x0f, 0x00, 0x00, 0x00, 0x73, 0x65, 0x72, 0x76, 0x69, 0x6e, 0x67, 0x5f,
  0x64, 0x65, 0x66, 0x61, 0x75, 0x6c, 0x74, 0x00, 0x01, 0x00, 0x00, 0x00,
  0x04, 0x00, 0x00, 0x00, 0xc0, 0xff, 0xff, 0xff, 0x0f, 0x00, 0x00, 0x00,
  0x04, 0x00, 0x00, 0x00, 0x07, 0x00, 0x00, 0x00, 0x64, 0x65, 0x6e, 0x73,
  0x65, 0x5f, 0x34, 0x00, 0x01, 0x00, 0x00, 0x00, 0x04, 0x00, 0x00, 0x00,
  0x2a, 0xda, 0xff, 0xff, 0x04, 0x00, 0x00, 0x00, 0x0b, 0x00, 0x00, 0x00,
  0x64, 0x65, 0x6e, 0x73, 0x65, 0x5f, 0x69, 0x6e, 0x70, 0x75, 0x74, 0x00,
  0x01, 0x00, 0x00, 0x00, 0x0c, 0x00, 0x00, 0x00, 0x08, 0x00, 0x0c, 0x00,
  0x08, 0x00, 0x04, 0x00, 0x08, 0x00, 0x00, 0x00, 0x11, 0x00, 0x00, 0x00,
  0x04, 0x00, 0x00, 0x00, 0x13, 0x00, 0x00, 0x00, 0x6d, 0x69, 0x6e, 0x5f,
  0x72, 0x75, 0x6e, 0x74, 0x69, 0x6d, 0x65, 0x5f, 0x76, 0x65, 0x72, 0x73,
  0x69, 0x6f, 0x6e, 0x00, 0x12, 0x00, 0x00, 0x00, 0xec, 0x24, 0x00, 0x00,
  0xe4, 0x24, 0x00, 0x00, 0xac, 0x24, 0x00, 0x00, 0xd4, 0x23, 0x00, 0x00,
  0x9c, 0x23, 0x00, 0x00, 0x7c, 0x10, 0x00, 0x00, 0x9c, 0x08, 0x00, 0x00,
  0xbc, 0x00, 0x00, 0x00, 0x84, 0x00, 0x00, 0x00, 0x6c, 0x00, 0x00, 0x00,
  0x54, 0x00, 0x00, 0x00, 0x4c, 0x00, 0x00, 0x00, 0x44, 0x00, 0x00, 0x00,
  0x3c, 0x00, 0x00, 0x00, 0x34, 0x00, 0x00, 0x00, 0x2c, 0x00, 0x00, 0x00,
  0x24, 0x00, 0x00, 0x00, 0x04, 0x00, 0x00, 0x00, 0xc2, 0xda, 0xff, 0xff,
  0x04, 0x00, 0x00, 0x00, 0x10, 0x00, 0x00, 0x00, 0x31, 0x2e, 0x35, 0x2e,
  0x30, 0x00, 0x00, 0x00, 0x00, 0x00, 0x00, 0x00, 0x00, 0x00, 0x00, 0x00,
  0x0c, 0xd4, 0xff, 0xff, 0x10, 0xd4, 0xff, 0xff, 0x14, 0xd4, 0xff, 0xff,
  0x18, 0xd4, 0xff, 0xff, 0x1c, 0xd4, 0xff, 0xff, 0x20, 0xd4, 0xff, 0xff,
  0xf6, 0xda, 0xff, 0xff, 0x04, 0x00, 0x00, 0x00, 0x08, 0x00, 0x00, 0x00,
  0x10, 0x42, 0x05, 0x3d, 0x06, 0xae, 0xcf, 0xbd, 0x0a, 0xdb, 0xff, 0xff,
  0x04, 0x00, 0x00, 0x00, 0x08, 0x00, 0x00, 0x00, 0xde, 0x40, 0x26, 0x3e,
  0x25, 0x90, 0x92, 0xbf, 0x1e, 0xdb, 0xff, 0xff, 0x04, 0x00, 0x00, 0x00,
  0x28, 0x00, 0x00, 0x00, 0x20, 0xc6, 0x01, 0x3f, 0xad, 0x74, 0x07, 0xbf,
  0xe0, 0x66, 0x0e, 0x3f, 0xc4, 0x32, 0x04, 0x3f, 0x36, 0x7e, 0x02, 0x3f,
  0x22, 0x06, 0xde, 0xbe, 0xfd, 0x48, 0x23, 0xbc, 0xab, 0xd3, 0x1c, 0x3f,
  0xca, 0x1a, 0x54, 0xbc, 0x03, 0xe0, 0x0b, 0x3f, 0x52, 0xdb, 0xff, 0xff,
  0x04, 0x00, 0x00, 0x00, 0xd0, 0x07, 0x00, 0x00, 0x5a, 0xe8, 0xc2, 0x3e,
  0xd5, 0x64, 0x8a, 0x3e, 0xf0, 0x3b, 0x37, 0x3f, 0xcf, 0x3f, 0x29, 0xbf,
  0x19, 0x1a, 0x15, 0x3f, 0xe8, 0xe4, 0x40, 0x3e, 0xf9, 0x03, 0x9f, 0xbe,
  0xad, 0x92, 0x3b, 0xbf, 0x82, 0x48, 0x9b, 0xbe, 0x39, 0xd2, 0x25, 0x3f,
  0x1d, 0x92, 0xd6, 0x3e, 0xa3, 0x3a, 0x5b, 0x3e, 0x74, 0x38, 0x59, 0x3e,
  0xf8, 0x5e, 0x3e, 0xbe, 0x8b, 0x89, 0x7b, 0x3d, 0x9f, 0x38, 0xfd, 0xbe,
  0x09, 0xa4, 0xf8, 0x3e, 0x67, 0x6b, 0x9b, 0x3e, 0x76, 0x43, 0x3e, 0x3e,
  0x84, 0x80, 0x5c, 0x3f, 0x51, 0x22, 0x2e, 0x3f, 0x8c, 0xc1, 0xdc, 0x3e,
  0x28, 0x58, 0x14, 0xbe, 0x2e, 0xd7, 0x3c, 0x3c, 0x5f, 0xf9, 0xac, 0x3e,
  0x75, 0xc3, 0x01, 0x3f, 0x3c, 0x66, 0x20, 0x3f, 0x07, 0x39, 0xc6, 0x3e,
  0xfb, 0xc6, 0x9d, 0xbe, 0x43, 0xa3, 0xaf, 0x3d, 0xa4, 0xa2, 0xa4, 0xbe,
  0x9e, 0x59, 0xd6, 0xbd, 0xcb, 0x23, 0xc6, 0xbe, 0xd0, 0xea, 0x34, 0xbf,
  0x7d, 0x30, 0xce, 0xbe, 0x7d, 0xc2, 0x42, 0xbe, 0x4f, 0xc4, 0xcc, 0x3e,
  0x05, 0x4c, 0x1a, 0x3f, 0xe4, 0xb8, 0x93, 0xbc, 0x90, 0x04, 0x0d, 0x3f,
  0x50, 0x93, 0xbf, 0xbe, 0x3a, 0x28, 0x85, 0xbe, 0xbd, 0xef, 0x15, 0xbf,
  0x71, 0x48, 0x07, 0xbf, 0x23, 0x87, 0x76, 0x3e, 0xe3, 0x16, 0xc0, 0xbd,
  0x81, 0x7e, 0xc7, 0x3e, 0xa5, 0x74, 0x5c, 0xbd, 0xe1, 0xe6, 0xb5, 0xbe,
  0xe8, 0xca, 0x5f, 0xbe, 0xe5, 0x12, 0x17, 0xbf, 0x47, 0x53, 0xea, 0x3e,
  0x63, 0xd2, 0x3c, 0xbf, 0x13, 0xfd, 0xe6, 0x3e, 0x5b, 0xbb, 0x83, 0x3e,
  0x79, 0xc4, 0x4c, 0xbe, 0x13, 0x70, 0x4c, 0x3f, 0x80, 0x3b, 0x01, 0x3f,
  0xf8, 0xa2, 0xde, 0x3e, 0x44, 0x78, 0x4d, 0xbf, 0x5a, 0x4b, 0x46, 0xbf,
  0x7c, 0xed, 0x63, 0x3f, 0xb5, 0xca, 0x00, 0x3f, 0xa1, 0x19, 0x84, 0xbe,
  0x19, 0xb2, 0x53, 0x3c, 0x9f, 0x8a, 0xc9, 0x3e, 0xfd, 0x8d, 0x1d, 0xbf,
  0xb6, 0xf5, 0xb5, 0x3e, 0xcd, 0x39, 0x3b, 0x3f, 0x32, 0xc0, 0x3d, 0xbf,
  0x13, 0x9d, 0x45, 0xbf, 0xe9, 0xb8, 0xad, 0x3e, 0xd3, 0x5a, 0x65, 0x3e,
  0x0d, 0x02, 0x48, 0x3e, 0x9d, 0x13, 0x65, 0x3d, 0xc2, 0x89, 0x16, 0xbf,
  0x91, 0x32, 0x31, 0xbf, 0xdf, 0x9d, 0xd1, 0xbd, 0x54, 0x83, 0xc8, 0x3e,
  0x72, 0xbd, 0x6c, 0x3e, 0x0c, 0x1a, 0x9b, 0xbd, 0xb5, 0xfa, 0x89, 0x3e,
  0x61, 0xf9, 0x3e, 0x3e, 0x6c, 0xfe, 0x18, 0x3f, 0x7f, 0xea, 0xb5, 0xbb,
  0xf2, 0x2a, 0x14, 0x3f, 0x01, 0x12, 0x69, 0x3f, 0xb6, 0xcf, 0x1a, 0xbf,
  0xc5, 0x48, 0x25, 0x3e, 0xb7, 0xec, 0x18, 0x3f, 0x31, 0xee, 0x0b, 0x3f,
  0x7b, 0x70, 0xc5, 0xbd, 0x9c, 0x73, 0x04, 0x3f, 0xee, 0x42, 0x19, 0x3f,
  0x5d, 0x9e, 0x19, 0xbf, 0x89, 0x10, 0x01, 0xbe, 0xae, 0x60, 0xe4, 0xbe,
  0xfc, 0x9f, 0x0f, 0xbf, 0x95, 0x19, 0xd5, 0x3f, 0x2c, 0x99, 0xbc, 0x3d,
  0x7a, 0xe2, 0x00, 0x3f, 0xac, 0x64, 0x7b, 0xbe, 0xa6, 0xcb, 0x33, 0x3f,
  0xf3, 0xd1, 0x14, 0xbf, 0xe5, 0xe9, 0x12, 0x3d, 0x97, 0xf5, 0x69, 0xbe,
  0xda, 0x45, 0xae, 0xbe, 0xc6, 0xe3, 0xec, 0xbe, 0x5a, 0xec, 0x36, 0x3d,
  0x1f, 0x1a, 0x20, 0x3f, 0xd5, 0xee, 0x6b, 0x3f, 0xf5, 0x6e, 0x75, 0x3d,
  0x39, 0xed, 0xe8, 0x3d, 0x17, 0x17, 0x3f, 0x3e, 0x02, 0xb1, 0xbb, 0xbe,
  0x4e, 0x61, 0xa2, 0xbe, 0xbd, 0x86, 0x16, 0x3f, 0x67, 0x3b, 0x39, 0x3e,
  0x2e, 0x41, 0x57, 0xbe, 0x45, 0xf3, 0x51, 0x3f, 0x8d, 0xe2, 0x52, 0x3f,
  0x05, 0x45, 0xb8, 0x3d, 0x22, 0xe7, 0x80, 0xbe, 0x52, 0xf9, 0x8a, 0xbc,
  0xab, 0x95, 0xb3, 0x3e, 0x6b, 0x0b, 0xf6, 0x3e, 0x52, 0xb5, 0x02, 0x3f,
  0x81, 0xb9, 0x0e, 0x3f, 0x35, 0x21, 0x94, 0xbe, 0xf0, 0x70, 0xe0, 0x3d,
  0x17, 0xa2, 0xb6, 0xbd, 0x4e, 0x4f, 0x66, 0x3c, 0x3d, 0xd1, 0xf7, 0xbe,
  0xb8, 0x1d, 0xb4, 0xbe, 0xd5, 0x4d, 0x05, 0x3e, 0x4d, 0x0b, 0xac, 0x3d,
  0xcf, 0xa3, 0xb6, 0xbd, 0xcc, 0x3b, 0x1f, 0x3f, 0x7d, 0x09, 0x47, 0x3e,
  0xff, 0x51, 0xa4, 0x3e, 0x2c, 0xe7, 0xd5, 0xbe, 0x7d, 0x1e, 0x17, 0x3d,
  0x0a, 0x8c, 0xd1, 0xbe, 0xc5, 0x32, 0x74, 0xbd, 0xc0, 0x53, 0xad, 0x3e,
  0x69, 0x88, 0xf8, 0xbd, 0xf5, 0x81, 0x22, 0x3f, 0x88, 0x65, 0xa5, 0x3e,
  0x7e, 0xdc, 0x06, 0xbf, 0xc7, 0x6f, 0x2b, 0xbe, 0x08, 0x2a, 0x00, 0x3f,
  0xcd, 0xc5, 0x97, 0x3d, 0x28, 0x34, 0x29, 0x3f, 0x47, 0xe3, 0x9f, 0xbe,
  0xc7, 0xdd, 0xdd, 0x3e, 0x9d, 0x2e, 0xb1, 0x3b, 0xe0, 0x94, 0x32, 0xbf,
  0x33, 0x2a, 0xce, 0xbe, 0xde, 0x01, 0xd5, 0xbd, 0xd7, 0x70, 0xbe, 0x3e,
  0x10, 0xa7, 0x23, 0x3f, 0xec, 0x6a, 0xab, 0x3e, 0x8a, 0x10, 0xa3, 0x3e,
  0xd3, 0xdc, 0x40, 0xbe, 0x89, 0x4d, 0x68, 0xbe, 0xa2, 0x1f, 0x54, 0x3d,
  0x36, 0x5a, 0x84, 0x3d, 0xda, 0xc8, 0xf3, 0xbd, 0xa0, 0x75, 0xd5, 0xbd,
  0xd6, 0x0c, 0x8f, 0x3f, 0x0a, 0xca, 0x92, 0x3f, 0x00, 0xe1, 0x67, 0x3d,
  0x39, 0x7f, 0xcf, 0xbe, 0xf4, 0x3c, 0xc1, 0xbe, 0x43, 0xb6, 0x2b, 0xbe,
  0xfc, 0x35, 0x20, 0x3f, 0x19, 0xf5, 0x33, 0x3f, 0x2f, 0xf6, 0x22, 0x3f,
  0xd7, 0x74, 0x6b, 0xbe, 0xfb, 0xc1, 0xb0, 0xbd, 0xb9, 0x32, 0x08, 0x3e,
  0x7c, 0x83, 0xd1, 0xbe, 0x5e, 0xc1, 0x54, 0x3c, 0x58, 0x82, 0x55, 0xbe,
  0x03, 0x73, 0x51, 0xbe, 0xe7, 0xaa, 0xab, 0xbe, 0xbf, 0x6c, 0x2a, 0x3d,
  0x7e, 0xba, 0x8a, 0xbd, 0xb2, 0xa7, 0x85, 0x3e, 0xe8, 0xdf, 0xde, 0x3e,
  0xbb, 0x25, 0x02, 0xbc, 0xd1, 0x89, 0xb0, 0xbb, 0xf3, 0x37, 0x82, 0x3d,
  0xea, 0x96, 0xdd, 0x3d, 0x2d, 0x03, 0xbc, 0x3e, 0x7f, 0xff, 0x0f, 0xbe,
  0x02, 0x5d, 0x27, 0x3f, 0x3a, 0x41, 0x55, 0x3e, 0xe5, 0xa0, 0xd3, 0xbe,
  0x46, 0x58, 0xd5, 0xbe, 0xea, 0xb4, 0xde, 0x3e, 0x4f, 0xb6, 0x1b, 0xbc,
  0xed, 0x8b, 0x16, 0x3f, 0xbc, 0x7b, 0x11, 0xbb, 0xc5, 0x73, 0x87, 0xbd,
  0x0f, 0x7b, 0x8b, 0x3e, 0xa8, 0xba, 0x08, 0xbf, 0x67, 0x0c, 0x9a, 0xbe,
  0xd7, 0x76, 0xef, 0xbd, 0x77, 0x93, 0x20, 0x3f, 0xb6, 0x67, 0xb2, 0x3e,
  0x98, 0xcf, 0x80, 0x3e, 0xae, 0x23, 0xed, 0x3e, 0xae, 0xd5, 0x1a, 0x3e,
  0x3f, 0x8c, 0xe1, 0xbe, 0xa6, 0x95, 0x02, 0xbf, 0xd2, 0x40, 0xa4, 0x3e,
  0xe8, 0x06, 0x54, 0x3e, 0x29, 0xfa, 0xb1, 0x3e, 0x49, 0xa2, 0x8b, 0x3f,
  0xdc, 0x2b, 0x5b, 0x3f, 0x24, 0x1e, 0x8d, 0x3e, 0x3d, 0x8a, 0x00, 0xbf,
  0x02, 0xaa, 0x50, 0xbe, 0x0d, 0x83, 0x87, 0x3d, 0x95, 0x35, 0x2c, 0x3f,
  0xe6, 0x3f, 0xdb, 0x3e, 0xad, 0xce, 0xeb, 0x3e, 0x17, 0xe5, 0x42, 0xbe,
  0x85, 0xd7, 0xb1, 0xbe, 0x06, 0x61, 0x57, 0x3e, 0x03, 0xfb, 0x7c, 0xbe,
  0x6c, 0x8e, 0x56, 0xbd, 0x84, 0xe3, 0x5a, 0xbe, 0x85, 0xd0, 0x0c, 0xbf,
  0x20, 0x9c, 0x57, 0xbe, 0x82, 0x0a, 0xde, 0x3e, 0xec, 0x06, 0x05, 0xbe,
  0xd5, 0xbc, 0x87, 0xbe, 0xed, 0xb0, 0x08, 0x3f, 0x5c, 0x47, 0xb6, 0xbe,
  0x20, 0x49, 0x67, 0x3e, 0xba, 0x7e, 0xdd, 0xbe, 0x16, 0xe1, 0x57, 0xbe,
  0x52, 0x3a, 0xe7, 0x3e, 0x58, 0x4f, 0x81, 0x3b, 0xd9, 0xb6, 0x3f, 0x3f,
  0x69, 0x12, 0xdb, 0x3e, 0x07, 0x94, 0x55, 0xbe, 0xab, 0xea, 0x0f, 0x3c,
  0xa2, 0xf6, 0xa2, 0xbe, 0x58, 0xc1, 0x3b, 0x3e, 0xa5, 0x36, 0x4d, 0xbf,
  0xed, 0x76, 0x2c, 0x3f, 0x4c, 0xfa, 0x8c, 0x3e, 0x4d, 0x5a, 0x31, 0xbe,
  0x52, 0x77, 0x44, 0x3f, 0x8d, 0xab, 0xe9, 0x3e, 0x0b, 0x3f, 0xfd, 0x3e,
  0x4a, 0x9a, 0xbf, 0xbe, 0x9d, 0xc4, 0xe3, 0xbe, 0xa0, 0x33, 0x9f, 0x3e,
  0x5c, 0x6a, 0x11, 0x3f, 0x05, 0xde, 0x7a, 0x3d, 0x9d, 0xf4, 0xfc, 0x3d,
  0x83, 0x31, 0x2f, 0x3e, 0x46, 0x00, 0xf9, 0xbe, 0xfb, 0xf0, 0x8a, 0x3e,
  0xd4, 0xd7, 0x36, 0x3f, 0x4e, 0x46, 0xc1, 0xbe, 0xfb, 0x21, 0x92, 0xbf,
  0xc3, 0x32, 0x05, 0x3f, 0x5d, 0x33, 0xdf, 0x3e, 0xe0, 0x60, 0x86, 0x3e,
  0x8e, 0x1a, 0x01, 0x3f, 0x8e, 0xd5, 0x1f, 0xbf, 0x1f, 0x41, 0x52, 0xbf,
  0xfb, 0x4a, 0x04, 0x3d, 0xab, 0x32, 0xa8, 0x3e, 0xae, 0x46, 0x78, 0x3e,
  0x10, 0x34, 0x9c, 0x3e, 0x58, 0x0c, 0x15, 0x3d, 0x97, 0x6d, 0xe4, 0x3d,
  0x38, 0x99, 0xb8, 0x3e, 0x11, 0xfd, 0x2f, 0x3d, 0xbf, 0x44, 0x83, 0x3e,
  0xe8, 0x80, 0x64, 0x3f, 0x7e, 0x54, 0xfd, 0xbe, 0x7e, 0xcd, 0x77, 0x3e,
  0x37, 0xd1, 0xf6, 0x3e, 0xb9, 0x12, 0xa5, 0x3e, 0x95, 0xfe, 0x53, 0x3d,
  0x69, 0x0c, 0xac, 0x3d, 0x36, 0x85, 0xde, 0x3e, 0xdc, 0x67, 0xcd, 0xbd,
  0xb1, 0x33, 0xab, 0xbd, 0xd9, 0xba, 0x3e, 0xbf, 0xa4, 0x70, 0xb0, 0xbe,
  0x8b, 0x62, 0x91, 0x3f, 0xf7, 0xa4, 0xed, 0x3e, 0x70, 0x2f, 0x8f, 0xbe,
  0x8e, 0x21, 0x3c, 0xbc, 0x83, 0x1a, 0x5c, 0x3e, 0x93, 0x62, 0xdf, 0xbd,
  0xda, 0x3e, 0xe2, 0xbd, 0x0e, 0x3b, 0x64, 0xbd, 0x79, 0x76, 0xf5, 0x3c,
  0x89, 0xd1, 0x07, 0xbe, 0x32, 0x2c, 0xb3, 0xbd, 0x1e, 0xa0, 0xd6, 0x3d,
  0x10, 0x01, 0x54, 0xbd, 0x1e, 0x8d, 0xad, 0x3d, 0xd7, 0x0a, 0x3a, 0x3e,
  0x15, 0x7f, 0x05, 0x3d, 0x4b, 0x58, 0x4d, 0x3e, 0xbd, 0x86, 0xa8, 0xbe,
  0x74, 0x17, 0x70, 0xbe, 0x24, 0x0f, 0x66, 0xbe, 0x8b, 0x32, 0x5f, 0xbd,
  0x21, 0x0d, 0x65, 0x3d, 0xf6, 0xa0, 0x37, 0x3e, 0x96, 0x0d, 0xd7, 0x3d,
  0x45, 0x3c, 0x95, 0xbd, 0xd8, 0x97, 0x74, 0xbe, 0x46, 0x21, 0xa0, 0xbe,
  0x40, 0x8a, 0xfd, 0x3c, 0xb2, 0xdc, 0xdb, 0x3d, 0xea, 0x90, 0x04, 0x3d,
  0x61, 0x74, 0x92, 0x3d, 0x4b, 0x23, 0x6a, 0xbe, 0x02, 0x55, 0x3a, 0xbe,
  0x26, 0x63, 0x8d, 0xbe, 0x05, 0xab, 0x1d, 0xbe, 0x7f, 0x8d, 0xb3, 0x3d,
  0x08, 0x97, 0x89, 0xbe, 0xf9, 0x26, 0xb2, 0x3d, 0xf4, 0xbe, 0xcf, 0xbd,
  0xc0, 0xbc, 0x3b, 0x3e, 0xf2, 0x3a, 0x8c, 0xbd, 0x2a, 0x25, 0x8c, 0x3b,
  0x8e, 0xec, 0x37, 0x3e, 0xed, 0xf6, 0x3d, 0xbe, 0x78, 0xc8, 0x2d, 0xbe,
  0x89, 0x46, 0x05, 0x3e, 0x67, 0x98, 0x6b, 0xbe, 0x92, 0xa1, 0x6c, 0xbe,
  0x22, 0x33, 0x81, 0xbe, 0x46, 0x1b, 0xaf, 0x3d, 0x63, 0x03, 0x9d, 0xbc,
  0x14, 0xff, 0xaf, 0xbc, 0x09, 0x78, 0x3c, 0x3f, 0x48, 0x11, 0xf2, 0x3e,
  0xa6, 0xb0, 0x61, 0x3e, 0xc3, 0x34, 0xd1, 0xbe, 0xd3, 0xf4, 0x0f, 0x3e,
  0xee, 0x78, 0x2f, 0xbb, 0xa6, 0x5b, 0x16, 0xbf, 0x41, 0x96, 0x55, 0x3d,
  0x7a, 0xc5, 0xa7, 0xbe, 0x85, 0xdb, 0x6c, 0x3f, 0xdc, 0x33, 0x2c, 0x3f,
  0xff, 0xb7, 0xbd, 0x3e, 0x50, 0x35, 0xeb, 0x3e, 0x7d, 0x3c, 0xf2, 0x3d,
  0x13, 0x24, 0xc3, 0xbd, 0x4e, 0xd1, 0xcb, 0xbe, 0x65, 0xc2, 0x37, 0x3e,
  0x41, 0xbc, 0x81, 0x3d, 0xc0, 0xcb, 0xde, 0x3e, 0x37, 0x50, 0x96, 0x3f,
  0xe4, 0x17, 0x86, 0x3f, 0x45, 0x2d, 0xa2, 0x3e, 0xec, 0xde, 0xa3, 0xbd,
  0xe8, 0x00, 0xfb, 0xbc, 0x66, 0x2e, 0xaa, 0xbd, 0x71, 0xae, 0xa0, 0x3e,
  0x35, 0x3e, 0x09, 0x3f, 0xe5, 0xb4, 0xe6, 0x3e, 0x96, 0x61, 0xd0, 0xbd,
  0xed, 0x78, 0xc7, 0xbe, 0x5f, 0x1a, 0x8a, 0xbe, 0xaa, 0x35, 0xdd, 0xbe,
  0x22, 0xdc, 0x2a, 0xbe, 0x83, 0x05, 0xfd, 0xbe, 0x2f, 0xfa, 0xe9, 0xbe,
  0x6f, 0xef, 0xbe, 0xbe, 0x43, 0x32, 0x0d, 0x3f, 0x83, 0x89, 0x44, 0x3e,
  0x28, 0x2b, 0xb3, 0x3c, 0x9d, 0xad, 0x24, 0x3e, 0xe1, 0xde, 0xa2, 0xbe,
  0xac, 0x91, 0x87, 0x3e, 0x54, 0x65, 0x06, 0xbd, 0x44, 0xbb, 0xed, 0xbe,
  0xfb, 0x62, 0xca, 0x3e, 0x14, 0xd3, 0x84, 0x3e, 0xe5, 0xc9, 0xa4, 0x3e,
  0x87, 0xb1, 0x05, 0x3d, 0x20, 0x44, 0xe2, 0xbe, 0x29, 0x9a, 0x03, 0xbf,
  0xf9, 0xea, 0x62, 0xbe, 0x3e, 0xd6, 0x1a, 0xbb, 0xc2, 0xc1, 0x82, 0x3d,
  0xf1, 0xaa, 0x12, 0xbc, 0x53, 0x1d, 0xdb, 0xbc, 0xcd, 0x8b, 0x9b, 0xbe,
  0xc1, 0x88, 0x9d, 0xbe, 0x43, 0x93, 0x9f, 0xbe, 0x43, 0xd7, 0x16, 0x3e,
  0xa8, 0xbb, 0x9f, 0xbe, 0x34, 0x72, 0x3f, 0x3e, 0x90, 0x1f, 0x6c, 0xbe,
  0xe2, 0x4c, 0x41, 0x3e, 0xa3, 0x2e, 0x93, 0x3e, 0x5a, 0x9d, 0x5a, 0xbd,
  0xf2, 0x44, 0x1a, 0xbe, 0xdb, 0xf6, 0x94, 0xbe, 0x2b, 0x6d, 0x51, 0xbe,
  0x77, 0xd9, 0x9b, 0xbe, 0x9b, 0xa6, 0x5f, 0xbe, 0x3f, 0x30, 0x3c, 0x3e,
  0x9b, 0xbe, 0x88, 0xbe, 0x4e, 0x19, 0x9c, 0xbe, 0xc2, 0xa5, 0x95, 0xbe,
  0xc3, 0x23, 0x72, 0xbe, 0xb9, 0x81, 0x40, 0x3e, 0x0e, 0x0f, 0x81, 0xbc,
  0x1e, 0x66, 0xe7, 0xbd, 0xff, 0xbe, 0x35, 0xbd, 0x99, 0x6a, 0xa6, 0x3d,
  0x06, 0xec, 0x0f, 0x3e, 0xc1, 0x61, 0x86, 0x3e, 0x99, 0x66, 0x1c, 0x3e,
  0xe8, 0x92, 0xd4, 0x3d, 0xde, 0xd8, 0x02, 0x3e, 0xb0, 0x01, 0x7c, 0xbd,
  0xc1, 0xe1, 0x4d, 0xbd, 0x26, 0x61, 0xf1, 0x3d, 0x9c, 0x21, 0x9e, 0xbe,
  0xfa, 0x4e, 0x4c, 0x3e, 0x5c, 0xf2, 0x32, 0xbe, 0x7e, 0x51, 0x40, 0x3e,
  0xe0, 0x09, 0x10, 0x3e, 0x27, 0x52, 0x61, 0xbe, 0xd9, 0x66, 0x28, 0x3e,
  0xdb, 0xd2, 0xc2, 0x3d, 0xd5, 0xc3, 0x0d, 0x3e, 0xc9, 0x0f, 0x45, 0xbe,
  0x4b, 0xce, 0x9f, 0x3e, 0x57, 0x1c, 0x98, 0xbe, 0xd7, 0x49, 0x18, 0x3f,
  0x51, 0x62, 0xa8, 0x3d, 0x14, 0x17, 0x37, 0x3f, 0x04, 0x5d, 0x25, 0xbf,
  0x93, 0xa7, 0xd5, 0x3e, 0x3f, 0xf2, 0x84, 0xbe, 0x4f, 0x41, 0xdb, 0xbe,
  0x18, 0xa1, 0xf4, 0xbe, 0x7f, 0x17, 0x00, 0xbf, 0xc6, 0x9a, 0x5e, 0x3f,
  0x25, 0xfd, 0x3a, 0x3f, 0x1e, 0xee, 0x1c, 0x3f, 0x2e, 0x3e, 0x70, 0xbd,
  0x1c, 0x69, 0x4d, 0xbe, 0x92, 0x1e, 0x9c, 0xbe, 0x4c, 0x9b, 0x67, 0x3d,
  0xfb, 0xca, 0x4f, 0x3e, 0x34, 0x96, 0x98, 0x3e, 0xe2, 0x5f, 0xc0, 0xbc,
  0xea, 0xb4, 0x76, 0x3f, 0xb9, 0x04, 0x8b, 0x3f, 0x6f, 0xc3, 0x53, 0x3e,
  0x06, 0x84, 0x0c, 0xbd, 0x99, 0x15, 0xac, 0xbe, 0x99, 0xe7, 0x93, 0xbd,
  0xd7, 0x94, 0xaf, 0x3e, 0x52, 0x1d, 0x3e, 0x3f, 0x91, 0x79, 0x11, 0x3f,
  0xe3, 0xce, 0xa6, 0xbe, 0x37, 0xa8, 0xc7, 0xbe, 0xa0, 0xda, 0x25, 0x3e,
  0xec, 0xe0, 0x12, 0xbf, 0x55, 0x21, 0xa2, 0xbe, 0x6a, 0xb2, 0x33, 0xbf,
  0x3c, 0x5b, 0x98, 0x3c, 0x4f, 0xac, 0x23, 0xbe, 0x6f, 0x2f, 0xd9, 0x3e,
  0xbf, 0x3d, 0x8b, 0x3e, 0x36, 0xb9, 0x23, 0xbe, 0x78, 0xd0, 0x7d, 0x3e,
  0xca, 0x6e, 0xc5, 0xbe, 0x27, 0x3c, 0xbb, 0xbe, 0x1d, 0xf7, 0x74, 0xbe,
  0x57, 0x78, 0xb3, 0xbe, 0x6a, 0x02, 0x2f, 0x3f, 0x40, 0xd3, 0x74, 0xbe,
  0x2b, 0x8f, 0x6d, 0x3f, 0x36, 0x5f, 0x87, 0x3d, 0x0a, 0x3c, 0xb4, 0xbe,
  0x0d, 0x83, 0xa2, 0xbe, 0x2e, 0xe3, 0xff, 0xff, 0x04, 0x00, 0x00, 0x00,
  0xd0, 0x07, 0x00, 0x00, 0x40, 0x0a, 0x4d, 0x3e, 0xf5, 0x0f, 0x05, 0x3f,
  0xf7, 0xcd, 0xc5, 0x3e, 0x7a, 0x5a, 0x4b, 0xbd, 0x11, 0x67, 0x12, 0xbe,
  0x81, 0x58, 0xae, 0x3e, 0x51, 0x1a, 0xa7, 0xbd, 0xd2, 0x4d, 0xc1, 0xbe,
  0x04, 0xdb, 0xba, 0x3e, 0xff, 0xe8, 0x1f, 0x3e, 0xbc, 0x13, 0x0b, 0x3e,
  0x72, 0xac, 0x9b, 0xbe, 0x45, 0xa8, 0x86, 0x3e, 0x89, 0x23, 0xf1, 0xbd,
  0xa2, 0x08, 0x04, 0xbf, 0xc5, 0x25, 0xf7, 0x3d, 0x54, 0x31, 0x4a, 0x3f,
  0xbb, 0x39, 0x38, 0xbd, 0x57, 0xf0, 0x7f, 0x3c, 0x48, 0x44, 0x94, 0x3e,
  0xd3, 0xf7, 0x27, 0xbf, 0x8f, 0x86, 0xa9, 0x3e, 0x66, 0x64, 0x07, 0x3e,
  0x55, 0x81, 0xf9, 0x3e, 0xce, 0x6c, 0x32, 0xbf, 0x4d, 0x5a, 0x1c, 0x3f,
  0x5f, 0x5e, 0xef, 0xbe, 0x0f, 0x75, 0x1d, 0xbf, 0x2b, 0x61, 0xf3, 0x3e,
  0x7e, 0x10, 0x58, 0x3d, 0xad, 0x8d, 0x60, 0x3e, 0x3a, 0xaf, 0x3e, 0xbf,
  0x3b, 0x20, 0x88, 0xbe, 0x75, 0xcc, 0x18, 0xbf, 0xd2, 0xdc, 0x53, 0x3e,
  0x5b, 0xbe, 0xcd, 0xbe, 0x58, 0x98, 0x38, 0x3f, 0xe9, 0x33, 0x86, 0xbe,
  0x05, 0x0f, 0xd6, 0xbe, 0xb8, 0x10, 0xd9, 0x3e, 0x55, 0xb1, 0xc9, 0xbd,
  0x83, 0xdf, 0x15, 0x3f, 0xd3, 0xf4, 0x20, 0x3f, 0xd2, 0x48, 0xee, 0x3e,
  0xa3, 0xbc, 0x16, 0x3e, 0x50, 0x68, 0x13, 0x3f, 0x90, 0x28, 0x1d, 0x3f,
  0x37, 0x25, 0xb0, 0xbe, 0x2b, 0x0b, 0xeb, 0x3c, 0x5e, 0xf8, 0xf7, 0x3e,
  0xde, 0x17, 0x4a, 0xbe, 0x47, 0x0c, 0x9e, 0xbe, 0xe5, 0x27, 0x0a, 0xbe,
  0x3d, 0x3b, 0x11, 0x3e, 0x7d, 0x7c, 0xaa, 0x3c, 0xb1, 0xe5, 0xab, 0xbd,
  0x59, 0x77, 0x5b, 0xbe, 0x41, 0x9a, 0x68, 0xbe, 0x4a, 0xec, 0x1d, 0x3d,
  0xb5, 0x0d, 0xda, 0x3d, 0x8a, 0x4e, 0xa3, 0x3e, 0xba, 0x79, 0xac, 0xbe,
  0xaf, 0xd9, 0xa6, 0xbe, 0x6d, 0x3a, 0xb0, 0x3d, 0x08, 0x3d, 0x2e, 0xbd,
  0xe5, 0x58, 0xe2, 0xbe, 0xc7, 0x85, 0x85, 0x3f, 0x58, 0x8c, 0x85, 0xbe,
  0x72, 0x24, 0x1a, 0xbf, 0x2c, 0xd8, 0xc7, 0x3e, 0x65, 0xe3, 0xe9, 0x3e,
  0x1a, 0xaf, 0x3f, 0xbf, 0xa5, 0x57, 0x72, 0xbe, 0xd8, 0xe9, 0x01, 0xbf,
  0x14, 0xf4, 0xb9, 0x3d, 0x30, 0x40, 0xec, 0xbe, 0xb9, 0x16, 0x18, 0x3f,
  0x14, 0xd7, 0x2a, 0xbe, 0xf3, 0xc5, 0xe7, 0xbe, 0xba, 0xaa, 0xe7, 0x3e,
  0x7e, 0xc0, 0x86, 0xbd, 0x08, 0xfc, 0x67, 0xbf, 0x25, 0x3b, 0x25, 0xbf,
  0x1c, 0x29, 0x03, 0xbf, 0x4f, 0x93, 0xd7, 0x3e, 0xcf, 0x81, 0xd2, 0xbe,
  0x3c, 0x11, 0x19, 0x3f, 0xe4, 0x15, 0xd1, 0xbc, 0xd6, 0x56, 0x3e, 0xbe,
  0xe3, 0x62, 0x3a, 0x3e, 0x69, 0x4f, 0xe9, 0xbe, 0xf6, 0xfd, 0xba, 0x3e,
  0xc8, 0xa3, 0x00, 0x3f, 0xbd, 0x74, 0xe1, 0x3d, 0x22, 0x0f, 0xfb, 0xbe,
  0x75, 0xff, 0xa4, 0x3e, 0xb3, 0x7c, 0xbb, 0xbe, 0x8c, 0x92, 0x41, 0xbf,
  0xdb, 0x62, 0xa0, 0x3e, 0x1e, 0x1d, 0x4b, 0xbd, 0xc2, 0xda, 0x2c, 0xbf,
  0xfc, 0x21, 0xcc, 0x3d, 0xe5, 0x8c, 0x19, 0x3f, 0x33, 0x1b, 0x2b, 0x3f,
  0xc0, 0xd3, 0x76, 0xbe, 0x61, 0x5f, 0x47, 0x3e, 0x12, 0x4c, 0x48, 0xbc,
  0x66, 0x3a, 0x26, 0xbf, 0x0e, 0x93, 0xe4, 0x3e, 0x32, 0x14, 0x51, 0xbc,
  0x5c, 0x0f, 0x2b, 0xbe, 0x16, 0x5f, 0x07, 0xbd, 0x78, 0x0f, 0x92, 0x3e,
  0x36, 0x68, 0x2f, 0x3e, 0x15, 0xc3, 0x99, 0x3e, 0x9b, 0xe8, 0x0a, 0x3f,
  0xa6, 0x72, 0xa8, 0x3f, 0x0d, 0x6f, 0x31, 0xbf, 0x12, 0x8b, 0xb7, 0x3d,
  0x08, 0xda, 0x9b, 0x3e, 0x1a, 0x95, 0xac, 0xbe, 0x7a, 0xcf, 0xc5, 0x3d,
  0x3f, 0x6e, 0x5d, 0x3d, 0x38, 0x2b, 0xe1, 0x3c, 0xd4, 0x74, 0x8b, 0x3e,
  0x50, 0xf0, 0xe3, 0x3e, 0x60, 0xae, 0x23, 0x3f, 0xf3, 0x08, 0x04, 0xbf,
  0xc9, 0x3e, 0x26, 0x3e, 0x93, 0x07, 0xba, 0xbd, 0xee, 0x28, 0x40, 0xbe,
  0x5e, 0xbd, 0xd0, 0xbd, 0x98, 0x57, 0xe2, 0xbc, 0xc7, 0x9b, 0x07, 0x3e,
  0x40, 0xce, 0xa2, 0x3d, 0xc2, 0xfb, 0x8d, 0xbe, 0x1a, 0x74, 0x17, 0xbd,
  0x57, 0x24, 0x82, 0xbe, 0x89, 0x77, 0xa0, 0x3d, 0xa4, 0x68, 0x89, 0xbe,
  0x0c, 0xe4, 0xb1, 0x3e, 0x69, 0xec, 0x2c, 0xbf, 0xb2, 0xd7, 0x60, 0xbe,
  0x68, 0x0d, 0x89, 0xbe, 0xdd, 0xbe, 0x9a, 0x3d, 0x69, 0x1e, 0x15, 0xbf,
  0x7b, 0x72, 0x9e, 0x3e, 0xcc, 0x43, 0xc5, 0x3d, 0x19, 0x98, 0xfc, 0xbe,
  0xc9, 0x81, 0x11, 0x3e, 0x2e, 0x20, 0x0e, 0x3f, 0x57, 0xae, 0x48, 0xbf,
  0x01, 0x4b, 0xfc, 0xbe, 0xfd, 0x9b, 0xa0, 0xbe, 0x90, 0xbd, 0x8b, 0x3e,
  0x12, 0xe9, 0xfb, 0xbd, 0x66, 0x5f, 0xd3, 0x3e, 0xee, 0xe1, 0x18, 0x3e,
  0xff, 0x34, 0xf8, 0xbe, 0xb8, 0x16, 0x0b, 0x3f, 0xdc, 0x55, 0x05, 0xbf,
  0xf0, 0xff, 0x4f, 0x3e, 0xd2, 0x3b, 0x40, 0x3f, 0x4b, 0xf8, 0x04, 0x3f,
  0x9d, 0xa0, 0xee, 0xbd, 0x9b, 0xb6, 0x20, 0x3f, 0x91, 0x95, 0x62, 0xbe,
  0x04, 0x59, 0xff, 0xb6, 0x1e, 0x56, 0x05, 0x3f, 0x92, 0x88, 0xdd, 0xbe,
  0x0d, 0x8f, 0x1b, 0x3e, 0x1a, 0x74, 0x95, 0x3e, 0xac, 0x36, 0x52, 0x3e,
  0x26, 0x42, 0xda, 0x3e, 0x4c, 0x62, 0xa3, 0x3e, 0xba, 0x35, 0xb4, 0xbb,
  0x09, 0x65, 0x93, 0x3f, 0x78, 0x5d, 0x99, 0xbe, 0x00, 0xae, 0xa6, 0x3e,
  0x31, 0xb9, 0x01, 0x3f, 0x27, 0x9a, 0x80, 0x3e, 0xaf, 0x57, 0xe8, 0xbe,
  0xaa, 0xfa, 0x22, 0xbd, 0x7f, 0xdc, 0x9b, 0xbd, 0xc9, 0x6b, 0x51, 0x3e,
  0x8e, 0x87, 0xf2, 0xbd, 0x47, 0xf8, 0xb7, 0x3f, 0x7b, 0xb5, 0xa9, 0xbe,
  0x97, 0xef, 0xdc, 0xbe, 0x0a, 0xd6, 0x38, 0x3f, 0xb9, 0x86, 0x97, 0xbf,
  0xb2, 0xb2, 0x97, 0x3e, 0xd9, 0x52, 0x92, 0x3e, 0x7b, 0x7c, 0x39, 0x3f,
  0x35, 0xd6, 0x60, 0xbe, 0xee, 0xe1, 0x90, 0x3e, 0x14, 0xf6, 0xd9, 0x3b,
  0x39, 0x95, 0x15, 0xbf, 0xb3, 0x39, 0x4a, 0xbd, 0x6f, 0xfb, 0x1a, 0xbf,
  0x5c, 0xbb, 0x36, 0xbf, 0xc0, 0x28, 0xc0, 0xbd, 0x98, 0xd0, 0xea, 0x3e,
  0xd9, 0xd2, 0x00, 0x3f, 0x19, 0x00, 0x8d, 0xbe, 0x23, 0x2a, 0x0e, 0x3f,
  0x19, 0x0d, 0xbc, 0xbe, 0x5d, 0x01, 0x7c, 0xbf, 0x42, 0x5c, 0xc9, 0x3e,
  0xf9, 0xb0, 0x19, 0xbc, 0xb4, 0xed, 0x6f, 0x3e, 0xd6, 0xda, 0x3d, 0x3e,
  0xab, 0x8b, 0x96, 0x3e, 0xd3, 0x97, 0xc2, 0x3d, 0x04, 0x84, 0x10, 0x3e,
  0x1d, 0x38, 0xde, 0x3e, 0x92, 0xd8, 0x34, 0x3f, 0x1f, 0x3c, 0xbd, 0xbe,
  0xb5, 0x18, 0x94, 0xbd, 0x49, 0x35, 0xc8, 0x3e, 0x4c, 0x8c, 0xbc, 0x3e,
  0xf9, 0x55, 0xc3, 0xbe, 0xa3, 0xa2, 0x7d, 0xbe, 0x0d, 0xd0, 0x80, 0xbe,
  0x08, 0x6d, 0x3e, 0x3e, 0x5d, 0x95, 0x0b, 0xbf, 0x81, 0x98, 0x1d, 0x3f,
  0x3a, 0xbb, 0x9b, 0x3e, 0x70, 0x8b, 0xbc, 0xbe, 0xe7, 0xcb, 0xab, 0x3e,
  0x4c, 0x2e, 0xc3, 0x3c, 0x76, 0x82, 0x44, 0xbf, 0xce, 0x92, 0x47, 0xbe,
  0x64, 0x64, 0x11, 0xbf, 0x96, 0x84, 0x78, 0x3e, 0xac, 0x54, 0x11, 0xbe,
  0xc9, 0xb7, 0x4c, 0x3f, 0x47, 0x06, 0xea, 0x3d, 0x75, 0xd3, 0x27, 0xbf,
  0x23, 0xad, 0xae, 0x3e, 0x05, 0x86, 0x34, 0x3d, 0xb8, 0x29, 0x0f, 0xbd,
  0x88, 0x9a, 0xe1, 0xbe, 0x07, 0xd4, 0xaf, 0xbe, 0xa1, 0xee, 0x09, 0x3f,
  0xcf, 0xae, 0x99, 0xbd, 0xc5, 0x16, 0x87, 0x3f, 0x9d, 0x52, 0x2c, 0x3e,
  0x79, 0xfa, 0xbf, 0xbe, 0xe2, 0x03, 0x37, 0x3e, 0x6d, 0x65, 0x0f, 0xbf,
  0x3b, 0x22, 0xf7, 0x3e, 0x64, 0x5e, 0x16, 0x3f, 0x86, 0x8f, 0x23, 0x3f,
  0x16, 0x98, 0x60, 0xbe, 0x6e, 0x6c, 0x31, 0x3f, 0x7b, 0x7a, 0x43, 0xbb,
  0xb5, 0xe4, 0x0c, 0xbf, 0xb4, 0x6f, 0xfb, 0x3e, 0x21, 0x9f, 0xf3, 0xbd,
  0x2e, 0x3a, 0x9e, 0xbe, 0x60, 0xe5, 0x0e, 0x3f, 0x41, 0x41, 0xf2, 0x3e,
  0xd4, 0xc0, 0x24, 0x3f, 0xf0, 0x6c, 0xb4, 0xbe, 0xe4, 0xc6, 0xed, 0x3e,
  0xf8, 0x2d, 0x3c, 0xbe, 0x4f, 0x15, 0x31, 0xbf, 0x70, 0xa0, 0x20, 0x3f,
  0x41, 0x2e, 0x4f, 0xbe, 0x52, 0xb2, 0x82, 0xbd, 0x45, 0xe4, 0xf1, 0x3e,
  0xfd, 0x2a, 0x05, 0x3f, 0xe6, 0x38, 0x35, 0x3f, 0xc1, 0xc5, 0xbf, 0xbe,
  0x26, 0x5a, 0xff, 0x3e, 0xd6, 0x98, 0xb2, 0xbd, 0x24, 0xa5, 0x2a, 0xbf,
  0x07, 0xa5, 0x8b, 0x3e, 0x06, 0xda, 0x0d, 0x3d, 0x27, 0xbd, 0xe6, 0x3e,
  0xb8, 0xcf, 0x5e, 0xbf, 0x1b, 0x48, 0x84, 0xbe, 0xd9, 0x23, 0xf8, 0xbe,
  0x23, 0x32, 0xb8, 0x3e, 0x36, 0x55, 0xab, 0xbe, 0x85, 0x40, 0x1a, 0x3f,
  0x30, 0x69, 0xef, 0xbd, 0x12, 0xb5, 0xff, 0xbe, 0xdf, 0x6e, 0xcb, 0x3e,
  0x75, 0x9e, 0x77, 0x3e, 0x3b, 0x06, 0xd4, 0xbe, 0x11, 0x53, 0xb6, 0xbe,
  0x03, 0x8c, 0xda, 0xbd, 0xdc, 0xd5, 0xac, 0x3e, 0xac, 0xa5, 0xc3, 0xbe,
  0x23, 0xc9, 0x1d, 0x3f, 0x43, 0xf0, 0xa5, 0x3e, 0x50, 0x19, 0x03, 0xbf,
  0x66, 0x07, 0x56, 0x3e, 0x9f, 0x8d, 0xec, 0x3e, 0x3d, 0x2d, 0xda, 0xbe,
  0xb7, 0x92, 0x54, 0xbe, 0xfb, 0x55, 0x58, 0xbe, 0xd5, 0xe1, 0x5e, 0xbe,
  0x5c, 0xb1, 0x13, 0x3e, 0xf2, 0x0d, 0x43, 0x3f, 0xb1, 0xe9, 0x11, 0xbd,
  0x5c, 0x78, 0x15, 0xbf, 0x5e, 0x4d, 0x87, 0x3e, 0xc5, 0x33, 0xf1, 0x3e,
  0x3e, 0x1b, 0xda, 0xbe, 0xa3, 0x0e, 0xf9, 0xbe, 0xdb, 0x75, 0xa3, 0xbe,
  0xd5, 0x06, 0x8a, 0xbd, 0xa5, 0x79, 0x7a, 0xbe, 0x86, 0xa7, 0x3c, 0x3f,
  0x7d, 0xe6, 0xe6, 0x3e, 0xe1, 0xf2, 0xd9, 0xbe, 0x59, 0xc2, 0x2d, 0x3e,
  0xad, 0x98, 0xde, 0x3e, 0x84, 0x1f, 0x7e, 0xbd, 0xf3, 0xb1, 0x63, 0xbe,
  0x8d, 0x0c, 0x1a, 0xbe, 0xad, 0xf6, 0x64, 0xbe, 0x44, 0xdb, 0x88, 0xbe,
  0xfa, 0x3d, 0xe2, 0x3e, 0x00, 0x8c, 0xd6, 0x3d, 0x8d, 0xaa, 0x54, 0xbf,
  0xd0, 0xef, 0xca, 0x3e, 0x60, 0x7d, 0xf2, 0x3e, 0x0f, 0xc4, 0x78, 0xbf,
  0xf2, 0x43, 0xea, 0xbe, 0xa5, 0xd3, 0x27, 0xbf, 0xfa, 0x59, 0xbd, 0x3d,
  0xa6, 0xc3, 0xa7, 0xbe, 0x87, 0x66, 0x21, 0x3f, 0x5d, 0xbc, 0x72, 0xbd,
  0xab, 0xb4, 0xc2, 0xbe, 0x2e, 0x6b, 0x9e, 0x3e, 0x76, 0x18, 0x45, 0x3e,
  0x68, 0xa4, 0xce, 0xbe, 0x8d, 0x09, 0xc2, 0xbe, 0x33, 0x11, 0x24, 0xbe,
  0xb9, 0xfc, 0x9e, 0x3e, 0x6d, 0x63, 0xbe, 0xbd, 0x19, 0x14, 0x00, 0x3e,
  0x3c, 0x9e, 0x03, 0x3f, 0x0a, 0x0e, 0xad, 0xbe, 0x63, 0x67, 0x97, 0x3e,
  0x1e, 0x42, 0x97, 0x3e, 0x57, 0x5d, 0x24, 0xbf, 0x69, 0xe9, 0x0c, 0xbf,
  0xcb, 0x8f, 0x09, 0xbf, 0x47, 0x05, 0xdd, 0x3e, 0x05, 0x8a, 0x88, 0xbe,
  0xc7, 0x69, 0x07, 0x3f, 0xa9, 0x0d, 0xd8, 0xbd, 0x8a, 0x75, 0x2c, 0xbf,
  0x82, 0xe4, 0x07, 0x3f, 0x18, 0x4c, 0x88, 0xbc, 0x86, 0xc1, 0x20, 0xbf,
  0x31, 0xca, 0x59, 0x3d, 0x9b, 0xe5, 0x0d, 0x3e, 0x0d, 0x9c, 0xb1, 0x3e,
  0x4f, 0x65, 0x22, 0x3f, 0xc9, 0xa9, 0xb5, 0x3f, 0x69, 0xb7, 0x2b, 0xbf,
  0x93, 0x14, 0x43, 0xbd, 0xfa, 0x96, 0x08, 0x3e, 0x89, 0xb5, 0x0a, 0xbf,
  0x10, 0x78, 0xe9, 0x3e, 0x21, 0xe2, 0x54, 0x3f, 0x5a, 0x00, 0xc9, 0x3e,
  0xac, 0x4f, 0x6b, 0xbe, 0x47, 0xd3, 0x49, 0x3e, 0xe0, 0x1c, 0xa5, 0xbe,
  0x6b, 0x96, 0x06, 0x3e, 0xad, 0x18, 0x22, 0x3f, 0xbd, 0xa9, 0x7b, 0xbe,
  0xa9, 0x05, 0x7e, 0xbe, 0x1e, 0x69, 0x80, 0xbd, 0x4f, 0x84, 0x65, 0x3e,
  0xf9, 0xa9, 0x6c, 0xbe, 0xba, 0x19, 0x30, 0xbe, 0x07, 0x2a, 0x50, 0xbe,
  0xda, 0x24, 0xb8, 0xbd, 0x51, 0xe0, 0x4c, 0xbe, 0x73, 0x35, 0x0e, 0xbe,
  0xf6, 0xe3, 0xf9, 0xbd, 0x7d, 0x78, 0xe7, 0xbc, 0xdf, 0xc7, 0x09, 0x3f,
  0xf7, 0x1e, 0x12, 0x3f, 0x26, 0x48, 0xe8, 0x3c, 0x5a, 0xba, 0xca, 0xbc,
  0x3e, 0xe9, 0x3c, 0x3e, 0x63, 0x0c, 0x55, 0x3f, 0xd7, 0x6c, 0x36, 0xbf,
  0x9b, 0x05, 0x4e, 0xbd, 0x89, 0x7f, 0xff, 0x3d, 0xd4, 0xb1, 0x92, 0x3e,
  0x5d, 0xe9, 0x52, 0xbf, 0xf0, 0xa5, 0x8c, 0xbe, 0xb8, 0x13, 0x0a, 0xbf,
  0x9e, 0x8a, 0xc8, 0x3d, 0x19, 0x45, 0xea, 0xbe, 0x90, 0xfb, 0x83, 0x3f,
  0x31, 0xeb, 0x9b, 0xbd, 0x46, 0x7a, 0x31, 0xbf, 0x6b, 0xd1, 0xf1, 0x3e,
  0xcf, 0x15, 0x6e, 0x3c, 0x01, 0x60, 0xda, 0x3d, 0x7f, 0xdc, 0x0b, 0x3e,
  0x7e, 0x96, 0x23, 0xbd, 0x48, 0x2d, 0xe2, 0xbd, 0xe7, 0xff, 0x91, 0xbe,
  0x6e, 0x34, 0x3e, 0xbe, 0x6a, 0x50, 0x1e, 0x3d, 0xc4, 0xcd, 0x97, 0xbe,
  0xe8, 0xca, 0xe7, 0x3d, 0x7e, 0x2a, 0xef, 0x3e, 0xe5, 0x03, 0x36, 0xbf,
  0x1d, 0x31, 0x88, 0xbe, 0x56, 0x1d, 0xd1, 0xbe, 0xe7, 0xaa, 0x26, 0x3e,
  0xc7, 0x44, 0x1a, 0xbf, 0x1b, 0x30, 0x69, 0x3f, 0x97, 0x7c, 0x20, 0xbe,
  0x23, 0x06, 0x24, 0xbf, 0x86, 0x84, 0xf6, 0x3e, 0x6f, 0x44, 0x06, 0xbe,
  0x64, 0x06, 0x53, 0xbf, 0x4c, 0xa2, 0x1d, 0xbf, 0xa0, 0xa0, 0xda, 0xbe,
  0x2e, 0xec, 0xba, 0x3e, 0x1e, 0x67, 0x15, 0xbf, 0xc8, 0x25, 0x50, 0x3f,
  0xbe, 0x87, 0x04, 0xbd, 0x52, 0x78, 0x9c, 0xbe, 0x4b, 0x3a, 0xa5, 0x3e,
  0x9a, 0x73, 0xf5, 0xbe, 0x20, 0x22, 0x31, 0x3f, 0x2c, 0x3b, 0x4d, 0x3e,
  0xd9, 0xd4, 0xcd, 0x3e, 0x0d, 0xcb, 0x8a, 0xbe, 0x4d, 0x03, 0x91, 0x3e,
  0xaa, 0xfa, 0xcf, 0xbe, 0xfa, 0x88, 0x1b, 0xbf, 0x9a, 0xce, 0xf2, 0xbc,
  0x5c, 0x78, 0x90, 0xbe, 0x67, 0x7b, 0xa0, 0xbe, 0xf7, 0x7c, 0x61, 0xbe,
  0x16, 0x81, 0x33, 0xbe, 0x16, 0x9b, 0xd5, 0x3d, 0x26, 0x5a, 0x9e, 0xbd,
  0x6f, 0x8a, 0x7d, 0xbe, 0x15, 0x21, 0x65, 0x3d, 0x05, 0xe7, 0xbe, 0xbd,
  0x79, 0xaf, 0x00, 0x3e, 0x45, 0x87, 0xff, 0x3b, 0x1b, 0x02, 0x31, 0xbf,
  0x75, 0xc7, 0x1e, 0x3f, 0x1b, 0x72, 0x1a, 0x3f, 0x1a, 0xd3, 0x09, 0x3f,
  0xa3, 0xcb, 0x82, 0xbe, 0xb2, 0xdc, 0xf3, 0x3d, 0x36, 0x79, 0xae, 0xbd,
  0x93, 0x70, 0x37, 0xbf, 0xe0, 0x50, 0xc6, 0x3e, 0x3c, 0xc9, 0xb7, 0xbe,
  0x4f, 0xbe, 0x21, 0xbf, 0x2b, 0x47, 0x6e, 0xbd, 0x68, 0xbb, 0x85, 0xbe,
  0x49, 0x2b, 0x9f, 0x3e, 0x54, 0x93, 0xa4, 0xbe, 0xaa, 0xdf, 0x5b, 0x3d,
  0x4d, 0xb4, 0x0f, 0xbe, 0x34, 0x72, 0x8a, 0x3c, 0xd0, 0x74, 0x72, 0x3e,
  0x79, 0x1a, 0x67, 0xbe, 0xc2, 0x2e, 0x3e, 0x3e, 0x32, 0x49, 0x6c, 0xbf,
  0xea, 0x26, 0xc3, 0xbe, 0x73, 0x5f, 0x2c, 0xbf, 0xfd, 0xba, 0xb0, 0x3e,
  0x43, 0x63, 0x28, 0xbe, 0x16, 0x91, 0x8b, 0x3f, 0xfa, 0xc3, 0xbc, 0xbe,
  0x2f, 0x12, 0xd6, 0xbe, 0x0f, 0xd2, 0xca, 0x3e, 0xab, 0x89, 0x2d, 0x3d,
  0xd5, 0x42, 0x60, 0xbf, 0x62, 0xfa, 0xa4, 0xbe, 0xd8, 0x01, 0x2b, 0xbf,
  0xbf, 0x76, 0x57, 0x3e, 0xae, 0x2e, 0x0a, 0xbf, 0x40, 0x77, 0xb2, 0x3e,
  0x8d, 0xf4, 0x19, 0x3e, 0xdc, 0x00, 0xae, 0xbe, 0x3b, 0x9f, 0x5a, 0x3e,
  0x0a, 0xeb, 0xff, 0xff, 0x04, 0x00, 0x00, 0x00, 0x10, 0x13, 0x00, 0x00,
  0x42, 0xb0, 0x42, 0xbe, 0x9f, 0xb2, 0x2f, 0xbe, 0x13, 0x09, 0xfe, 0xbe,
  0xe1, 0x6f, 0x9c, 0xbd, 0x40, 0x63, 0x7a, 0xbd, 0xc7, 0xd1, 0xa9, 0xbe,
  0x0a, 0x89, 0xb7, 0xbf, 0x3f, 0xe2, 0xe7, 0xbc, 0xf7, 0x74, 0x0e, 0xbe,
  0x00, 0x01, 0x13, 0xc0, 0xfa, 0x50, 0x08, 0xbe, 0xf8, 0xec, 0x1c, 0xbe,
  0x63, 0xad, 0x91, 0x3f, 0x9f, 0x1b, 0x54, 0xbf, 0x08, 0x1f, 0x88, 0xbd,
  0xde, 0x4e, 0xa1, 0xbe, 0xb0, 0xf7, 0x78, 0xbc, 0x7f, 0xa5, 0xc2, 0xbc,
  0x59, 0x99, 0x83, 0x3d, 0x0a, 0x00, 0x48, 0x3e, 0x2b, 0x65, 0x1b, 0x3f,
  0x66, 0x81, 0x47, 0x3e, 0x30, 0x8e, 0x40, 0x3b, 0xc0, 0xda, 0x9b, 0xbd,
  0xa8, 0xd3, 0x11, 0xbf, 0x4a, 0xb4, 0x3d, 0x3e, 0xb7, 0xae, 0xf3, 0xbc,
  0x34, 0xa1, 0x4d, 0x3e, 0xee, 0x1f, 0xd3, 0xbe, 0x43, 0xc4, 0xf0, 0x3e,
  0xcc, 0xf3, 0x9a, 0xbe, 0x59, 0x15, 0xaf, 0xbd, 0xf9, 0xd1, 0x5e, 0xbc,
  0x47, 0x1f, 0xea, 0xbe, 0xd7, 0xd4, 0x05, 0x3e, 0xd9, 0x93, 0x96, 0x3d,
  0x10, 0x76, 0xed, 0xbe, 0xd9, 0x82, 0xa3, 0x3d, 0xa0, 0x64, 0xcc, 0xbe,
  0x48, 0xb4, 0x6d, 0x3e, 0xc7, 0x2f, 0x1e, 0x3e, 0x54, 0x2f, 0x57, 0xbd,
  0x01, 0x52, 0x1d, 0xbd, 0x4a, 0x1d, 0x35, 0xbe, 0xa9, 0x0d, 0xc2, 0xbd,
  0xe7, 0x2a, 0xaf, 0xbe, 0xc7, 0x66, 0x82, 0x3c, 0x09, 0x42, 0x0c, 0xbe,
  0x2b, 0xe1, 0xb5, 0x3d, 0x6b, 0x0d, 0xbd, 0x3c, 0x16, 0xd6, 0x87, 0x3d,
  0x80, 0xe0, 0x04, 0x3e, 0x9a, 0x11, 0x59, 0xbd, 0x1e, 0x88, 0x9f, 0x3d,
  0x84, 0x1c, 0x36, 0x3d, 0xd4, 0xbf, 0xe3, 0xbe, 0x82, 0x77, 0x2c, 0xbe,
  0x26, 0x0e, 0x51, 0x3d, 0xa8, 0xc9, 0x6b, 0xbe, 0x3e, 0xab, 0x59, 0x3e,
  0xc4, 0xcd, 0x88, 0x3a, 0x18, 0xce, 0xaa, 0xbe, 0x9c, 0x71, 0x42, 0xbe,
  0x2f, 0x98, 0x06, 0xbe, 0xf4, 0x0a, 0x0c, 0xbe, 0xb4, 0x5c, 0x95, 0x3d,
  0x0a, 0x35, 0x59, 0xbe, 0xfa, 0xe7, 0x41, 0xbe, 0xdb, 0x21, 0xbc, 0xbd,
  0xf2, 0x7f, 0x4f, 0xbe, 0x2b, 0xaf, 0x1e, 0xbe, 0x2d, 0xca, 0x26, 0xbe,
  0xc9, 0x1c, 0x08, 0x3e, 0xc6, 0xe4, 0xa0, 0x3c, 0x9d, 0xfe, 0x26, 0xbe,
  0x75, 0x27, 0xe5, 0x3d, 0xa9, 0x7f, 0x94, 0xbd, 0x36, 0xf7, 0x13, 0xbe,
  0x45, 0x58, 0xf9, 0x3d, 0xea, 0x96, 0x17, 0xbe, 0x5a, 0x25, 0xd9, 0xbd,
  0x02, 0x49, 0x4a, 0xbe, 0xe2, 0x4b, 0xc8, 0x3d, 0xc5, 0x08, 0xd2, 0xbd,
  0xf6, 0x16, 0x87, 0x3e, 0xc9, 0x38, 0xfc, 0x3d, 0x1d, 0xd4, 0x46, 0xbe,
  0x48, 0x98, 0x75, 0xbe, 0x95, 0x5c, 0x08, 0x3e, 0x9e, 0x59, 0x80, 0xbe,
  0x4f, 0xda, 0x2e, 0xbe, 0xaa, 0xe8, 0x0e, 0xbe, 0x9c, 0x89, 0x89, 0xbd,
  0x73, 0xf2, 0x32, 0xbe, 0xcb, 0xd7, 0xfe, 0xbd, 0xa6, 0xc6, 0xf6, 0x3d,
  0xa7, 0x94, 0x31, 0xbe, 0x2d, 0x0e, 0xab, 0xbe, 0xd9, 0x13, 0x17, 0xbe,
  0x94, 0x46, 0x02, 0x3d, 0x6c, 0x7b, 0x91, 0x3d, 0x54, 0xa1, 0x43, 0xbe,
  0x85, 0xdb, 0x20, 0x3d, 0xaa, 0x9b, 0xe2, 0x3d, 0xcf, 0x1e, 0xcb, 0x3d,
  0x20, 0x4b, 0x02, 0x3e, 0x83, 0x40, 0xbb, 0x3e, 0x18, 0x6e, 0x66, 0xbd,
  0xe6, 0x64, 0x08, 0xbe, 0xaf, 0xbc, 0x49, 0xbd, 0xa0, 0xdb, 0x1d, 0xbe,
  0x52, 0xc8, 0x0e, 0xbd, 0x25, 0xd0, 0x03, 0x3f, 0x92, 0x06, 0x7d, 0xbc,
  0x9d, 0x9e, 0xbb, 0xbd, 0xbf, 0xd9, 0xae, 0xbe, 0xfe, 0x39, 0x8a, 0xbd,
  0x71, 0x08, 0xff, 0xbc, 0x68, 0x2d, 0x22, 0xbe, 0xc7, 0xeb, 0x58, 0xbe,
  0xc8, 0x80, 0x18, 0xbe, 0xdb, 0x5a, 0xbc, 0xbd, 0xac, 0x53, 0x3b, 0x3d,
  0x38, 0xfc, 0x78, 0xbd, 0xc7, 0xf6, 0x3a, 0xbe, 0xa3, 0xa3, 0xf5, 0x3c,
  0xb2, 0xd6, 0x05, 0x3f, 0xda, 0x63, 0x54, 0xbd, 0x2f, 0x24, 0x9d, 0xbe,
  0xa6, 0x0b, 0x53, 0xbe, 0x28, 0x0c, 0x27, 0xbf, 0x87, 0x69, 0x44, 0xbe,
  0x22, 0xd3, 0x0f, 0xbe, 0x04, 0x72, 0xda, 0xbc, 0x79, 0x52, 0xc9, 0x3d,
  0xd7, 0xae, 0x14, 0x3d, 0xbf, 0x46, 0x16, 0xbd, 0xbc, 0x82, 0x46, 0xbe,
  0x58, 0x85, 0x2f, 0xbe, 0xca, 0x01, 0x93, 0xbd, 0x8f, 0x46, 0xe5, 0xbe,
  0xed, 0xc2, 0x18, 0x3f, 0x1a, 0x70, 0xee, 0x3e, 0x97, 0x12, 0x8f, 0x3e,
  0x27, 0x1c, 0x1c, 0x3f, 0x58, 0xd2, 0x8b, 0x3e, 0xe0, 0x74, 0x33, 0xbe,
  0xd4, 0x19, 0x52, 0x3d, 0x41, 0x41, 0xbe, 0x3d, 0x4c, 0x2d, 0x82, 0x3e,
  0x4a, 0xf9, 0x53, 0xbc, 0xbf, 0x36, 0x67, 0x3f, 0x29, 0x3d, 0xfe, 0xbe,
  0xb5, 0xcc, 0x64, 0x3f, 0xd8, 0x6d, 0x4e, 0xbe, 0x81, 0x43, 0x2e, 0x3e,
  0xfc, 0x0f, 0x03, 0x3f, 0x3a, 0xc4, 0x11, 0x3f, 0x42, 0x8f, 0xd8, 0x3e,
  0x7c, 0xc9, 0x28, 0x3d, 0x5a, 0xe1, 0x97, 0x3d, 0xa8, 0xe7, 0x39, 0xbe,
  0xf8, 0xa5, 0x65, 0xbd, 0x7d, 0xe3, 0xe1, 0xbc, 0xfb, 0x50, 0x68, 0xbd,
  0x52, 0xa6, 0xea, 0x3e, 0x9a, 0x85, 0xd6, 0x3c, 0xfe, 0xb6, 0x33, 0x3e,
  0xc8, 0x7c, 0xc8, 0x3e, 0x1c, 0xe1, 0xdf, 0x3e, 0xcd, 0x5e, 0x58, 0x3e,
  0x21, 0x48, 0x02, 0x3f, 0x80, 0x5a, 0x95, 0x3e, 0x1f, 0x42, 0x01, 0x3f,
  0xed, 0xe1, 0x11, 0x3e, 0xc3, 0x84, 0x2f, 0x3e, 0xf0, 0x7e, 0xca, 0x3e,
  0xaa, 0x14, 0xaa, 0x3e, 0x89, 0x1c, 0x91, 0x3e, 0x79, 0x36, 0x37, 0x3e,
  0xf2, 0x95, 0xe3, 0x3e, 0x74, 0x2f, 0xbb, 0xbd, 0x92, 0x21, 0x95, 0x3e,
  0x23, 0xf1, 0xee, 0xbe, 0x06, 0x41, 0xff, 0x3e, 0x2e, 0x2b, 0x62, 0x3e,
  0x0b, 0x33, 0x1d, 0xbc, 0x39, 0xb8, 0x3c, 0xbf, 0x87, 0x8c, 0x10, 0xbc,
  0xfe, 0xeb, 0xfb, 0x3e, 0x06, 0xb1, 0xc9, 0x3d, 0x06, 0xea, 0x1f, 0x3e,
  0x03, 0xba, 0xb2, 0x3e, 0x02, 0xa2, 0x9a, 0x3e, 0x11, 0x10, 0xec, 0x3e,
  0x42, 0xfd, 0x4e, 0x3e, 0x26, 0x43, 0x2c, 0x3e, 0x91, 0x02, 0xbb, 0x3e,
  0x71, 0xf0, 0xe4, 0x3e, 0x72, 0x06, 0x24, 0x3e, 0xde, 0x2a, 0x93, 0x3e,
  0xd3, 0x28, 0xe4, 0x3e, 0xc4, 0x21, 0xd4, 0x3e, 0x60, 0xd9, 0xbd, 0x3e,
  0xc8, 0x5f, 0x2e, 0x3e, 0xfa, 0x4f, 0x01, 0x3f, 0xc4, 0x77, 0xa5, 0x3d,
  0xf4, 0x65, 0x91, 0xbe, 0x18, 0xf0, 0x27, 0xbd, 0xa6, 0x65, 0x77, 0x3d,
  0xaf, 0x9d, 0xc9, 0x3c, 0x55, 0xf1, 0x8e, 0xbc, 0xb8, 0x44, 0x05, 0x3f,
  0x5c, 0xf8, 0x59, 0xbd, 0x0d, 0x0e, 0xb5, 0x3e, 0xeb, 0x4a, 0xe1, 0xbd,
  0x9f, 0x8a, 0x10, 0x3d, 0xc9, 0xd9, 0x9a, 0xbc, 0x78, 0x19, 0x96, 0x3d,
  0x99, 0x1f, 0xd3, 0x3d, 0xd6, 0xf7, 0xae, 0x3e, 0x1c, 0xcd, 0xb9, 0x3b,
  0x4b, 0xff, 0xf0, 0x3e, 0x88, 0x22, 0xa1, 0xbd, 0xb8, 0x2b, 0xa2, 0xbd,
  0xd3, 0x56, 0xce, 0x3d, 0x87, 0xe0, 0x6e, 0x3d, 0x0d, 0x49, 0x92, 0xbd,
  0xcd, 0xa9, 0x73, 0x3d, 0x52, 0x06, 0xc6, 0x3e, 0x1c, 0x24, 0xca, 0x3e,
  0xfc, 0x5c, 0xed, 0x3e, 0xf9, 0x83, 0xb3, 0x3e, 0x83, 0x2c, 0x8d, 0x3d,
  0x03, 0x98, 0x22, 0xbe, 0xa3, 0x21, 0xe9, 0x3d, 0xa9, 0xb8, 0x8e, 0x3e,
  0x15, 0x87, 0xc7, 0x3b, 0xbe, 0x85, 0x03, 0x3f, 0xc6, 0x75, 0x9e, 0xbe,
  0xd1, 0x4c, 0xf5, 0xbd, 0xf5, 0xa8, 0x35, 0xbd, 0xfe, 0x34, 0x80, 0xbe,
  0xe1, 0xf6, 0x64, 0x3e, 0x12, 0x44, 0x1c, 0xbf, 0xe0, 0x60, 0xae, 0xbe,
  0xba, 0x38, 0x24, 0xbe, 0x4b, 0x26, 0xae, 0xbd, 0xa8, 0x4f, 0x6e, 0xbe,
  0x69, 0xc4, 0x35, 0xbd, 0x3e, 0xf9, 0x7d, 0xbe, 0xea, 0xda, 0xb6, 0x3d,
  0x5c, 0xb3, 0x39, 0xbf, 0xa0, 0x4a, 0x9f, 0xbe, 0x7b, 0x5c, 0x48, 0xbe,
  0x52, 0x17, 0x63, 0x3a, 0xae, 0x1a, 0x9f, 0xbd, 0xc1, 0x1c, 0xef, 0x3d,
  0x81, 0x83, 0xcb, 0xbd, 0xf6, 0x51, 0x5c, 0xbe, 0x00, 0x36, 0xd8, 0xbc,
  0x3a, 0x4c, 0x19, 0xbd, 0x96, 0x45, 0xda, 0xbe, 0xb2, 0xf4, 0x71, 0xbd,
  0xde, 0x58, 0x35, 0x3e, 0x05, 0x04, 0x80, 0x3c, 0x3a, 0x90, 0xfa, 0x3e,
  0xff, 0x49, 0x1e, 0x3e, 0xf6, 0xd6, 0x19, 0x3d, 0xcb, 0x60, 0x39, 0xbf,
  0xdd, 0x09, 0x87, 0x3e, 0x72, 0xd0, 0x81, 0xbe, 0xe9, 0x7e, 0x19, 0x3e,
  0x77, 0x60, 0xe1, 0xbd, 0xb7, 0xfc, 0x57, 0xbf, 0x41, 0x10, 0x05, 0xbe,
  0x1a, 0x65, 0x8f, 0x3e, 0x8e, 0x4b, 0x2d, 0x3d, 0x4c, 0x64, 0x95, 0x3e,
  0x3e, 0xa2, 0x88, 0x3e, 0xfa, 0x28, 0x03, 0x3f, 0xab, 0x62, 0x4f, 0x3d,
  0x32, 0xe7, 0x86, 0xbe, 0x67, 0x7b, 0xbb, 0x3b, 0xff, 0x5a, 0x8d, 0x3e,
  0xfe, 0x1b, 0xe8, 0x3d, 0x09, 0xa1, 0x2d, 0x3d, 0xbf, 0x38, 0x7b, 0x3d,
  0x7b, 0x20, 0x29, 0xbd, 0xe6, 0xa9, 0x96, 0x3d, 0x1b, 0xed, 0xca, 0x3e,
  0x13, 0x82, 0x36, 0x3e, 0x70, 0x3d, 0x1c, 0xbd, 0x96, 0x5c, 0xa2, 0x3e,
  0x2b, 0x03, 0x44, 0xbd, 0xac, 0x1c, 0x9a, 0x3e, 0x81, 0x7f, 0xd3, 0x3d,
  0x4f, 0x5c, 0xf4, 0x3d, 0xfa, 0xd4, 0x37, 0x3e, 0x21, 0xae, 0x58, 0xbe,
  0x44, 0x35, 0x67, 0xbe, 0x72, 0xeb, 0x78, 0x3e, 0xc0, 0xb9, 0x5b, 0x3e,
  0x50, 0x6e, 0x10, 0x3e, 0x57, 0x9e, 0xb3, 0x3e, 0x0c, 0x79, 0xbf, 0xbc,
  0x71, 0x48, 0xc0, 0x3e, 0xd8, 0x89, 0x89, 0xbd, 0x3f, 0x59, 0xda, 0x3e,
  0xca, 0x8f, 0x12, 0xbf, 0xa2, 0x46, 0x8b, 0x3e, 0x5a, 0x89, 0x88, 0x3d,
  0xd8, 0xfc, 0x90, 0x3d, 0x49, 0x2c, 0x94, 0x3e, 0x2a, 0x8a, 0xa1, 0x3e,
  0xaf, 0xf2, 0x8e, 0x3d, 0x14, 0x38, 0x61, 0x3e, 0x97, 0x5d, 0xc0, 0x3e,
  0x53, 0x28, 0xb8, 0xbd, 0x70, 0x96, 0x8a, 0x3e, 0x70, 0x4e, 0x0e, 0xbd,
  0xae, 0xa4, 0x46, 0x3e, 0x20, 0x17, 0xb6, 0x3e, 0x68, 0x21, 0x88, 0x3e,
  0x62, 0x82, 0xb8, 0x3d, 0x1a, 0x07, 0x58, 0x3e, 0x70, 0x50, 0x8f, 0x3e,
  0x32, 0xe8, 0xb5, 0xbd, 0xbf, 0xd2, 0xcc, 0xbd, 0x08, 0xbc, 0x0b, 0xbb,
  0xa1, 0x0b, 0x61, 0xbe, 0x85, 0x5f, 0x6e, 0x3e, 0xbf, 0x00, 0xa7, 0x3d,
  0x8e, 0xbf, 0xbe, 0x3e, 0x64, 0x6d, 0x9b, 0x3e, 0x52, 0x92, 0xa3, 0x3d,
  0x37, 0x64, 0x7d, 0x3e, 0x4b, 0x06, 0xb2, 0x3e, 0x30, 0xfb, 0x31, 0xbe,
  0x7e, 0x3f, 0x25, 0x3e, 0xff, 0x35, 0x96, 0x3e, 0x87, 0x66, 0x24, 0x3e,
  0x15, 0x11, 0x5d, 0x3e, 0x8e, 0x02, 0x8d, 0x3e, 0x82, 0xdf, 0xde, 0x3d,
  0x16, 0x23, 0x5b, 0x3e, 0x16, 0x33, 0x1a, 0xbe, 0xcf, 0x33, 0x95, 0x3c,
  0xc9, 0xe0, 0x84, 0x3e, 0xb6, 0x44, 0xa2, 0x3c, 0x17, 0xe6, 0x92, 0xbd,
  0xec, 0x8e, 0x1a, 0x3d, 0x9e, 0xa4, 0x2f, 0x3e, 0xa7, 0x81, 0xed, 0xbc,
  0xb1, 0x02, 0xf7, 0xbc, 0x37, 0xb6, 0xfe, 0x3d, 0x23, 0x8e, 0x00, 0x3e,
  0x27, 0xc8, 0xbb, 0x3d, 0xcb, 0x38, 0x3b, 0xbe, 0x45, 0xd0, 0x3b, 0xbc,
  0x54, 0x5e, 0x0d, 0x3e, 0x81, 0xce, 0x09, 0xbe, 0x4f, 0x87, 0xc0, 0xbd,
  0x8b, 0xb6, 0x08, 0xbd, 0x38, 0x10, 0x9a, 0xbe, 0x8b, 0xb6, 0xa1, 0xbc,
  0x08, 0xeb, 0x21, 0x3f, 0x32, 0x66, 0x46, 0x3e, 0x94, 0x60, 0xc0, 0xbe,
  0x46, 0xef, 0xe9, 0x3c, 0xdb, 0xf2, 0xa4, 0x3e, 0x76, 0xec, 0x93, 0xbd,
  0xaa, 0xec, 0xc8, 0x3d, 0x4b, 0x1c, 0x9d, 0x3c, 0x3a, 0x1a, 0x92, 0xbe,
  0xd4, 0x9a, 0x17, 0xbf, 0x41, 0x93, 0x3c, 0xbe, 0x35, 0xa9, 0xa7, 0xbd,
  0xbf, 0x45, 0x8b, 0xbe, 0x97, 0x71, 0x80, 0xbe, 0xda, 0x90, 0xed, 0xbd,
  0x64, 0xf7, 0xde, 0xbc, 0x5e, 0x51, 0x43, 0x3e, 0xc9, 0x0a, 0x79, 0xbd,
  0xf0, 0x7a, 0x5d, 0x3e, 0x5a, 0x87, 0x86, 0x3e, 0xd0, 0x5c, 0xe0, 0x3e,
  0x22, 0x9c, 0x8e, 0x3e, 0x46, 0xa3, 0x05, 0x3f, 0xcf, 0xb8, 0x09, 0x3f,
  0xff, 0xfe, 0x24, 0xbe, 0xe2, 0x98, 0xd7, 0xbd, 0x92, 0x56, 0x39, 0x3d,
  0xd6, 0x5d, 0xbc, 0xbe, 0xa9, 0xa2, 0xa3, 0x3f, 0x5e, 0x5c, 0x0d, 0x3f,
  0x28, 0x9a, 0x98, 0xbe, 0x2d, 0x8d, 0xd1, 0xbd, 0x5e, 0x31, 0x51, 0xbe,
  0xf2, 0x03, 0xa3, 0xbe, 0x01, 0x41, 0xae, 0x3e, 0x9e, 0x35, 0x88, 0x3e,
  0x5f, 0x4d, 0xa2, 0x3e, 0x32, 0x6a, 0x21, 0x3d, 0x72, 0xec, 0x2e, 0x3d,
  0xe4, 0xb5, 0x36, 0x3e, 0xde, 0x2d, 0xba, 0xbe, 0x10, 0xc1, 0x20, 0x3d,
  0x7f, 0x55, 0x8f, 0xbc, 0x06, 0xfa, 0xac, 0x3e, 0x04, 0xc8, 0x83, 0x3e,
  0x67, 0x72, 0xda, 0xbc, 0x50, 0xe6, 0xb2, 0x3e, 0xfb, 0xed, 0x4d, 0x3e,
  0xed, 0xcb, 0x87, 0x3e, 0x6a, 0xb4, 0xb4, 0x3e, 0x1c, 0xcd, 0xd3, 0x3e,
  0xdb, 0x54, 0xca, 0x3e, 0x8d, 0x37, 0x90, 0xbd, 0x5e, 0x80, 0xe2, 0x3e,
  0x25, 0xb3, 0xc0, 0x3e, 0x69, 0xad, 0x5c, 0xbb, 0x41, 0x40, 0xa3, 0x3e,
  0xb5, 0x04, 0xe2, 0x3e, 0xf9, 0xa5, 0xf7, 0x3d, 0xe7, 0x03, 0xbb, 0xbd,
  0xaa, 0x36, 0x32, 0xbd, 0x59, 0x9f, 0x22, 0x3e, 0x5c, 0x14, 0x62, 0xbc,
  0x00, 0x7d, 0xc3, 0xbc, 0x0e, 0x88, 0x13, 0xbd, 0xef, 0x03, 0x44, 0xbf,
  0xa7, 0xee, 0x31, 0xbc, 0xa8, 0x25, 0xdf, 0x3e, 0x1e, 0xb5, 0x50, 0x3e,
  0xb7, 0x84, 0xc5, 0x3e, 0xde, 0x43, 0x23, 0x3e, 0xdc, 0xff, 0xce, 0x3e,
  0xca, 0xfc, 0xa1, 0x3d, 0xa4, 0xe8, 0x7a, 0x39, 0xb0, 0x16, 0xb2, 0x3e,
  0xac, 0xda, 0x03, 0x3f, 0xe3, 0xdd, 0x8b, 0x3e, 0xc2, 0x24, 0xfa, 0x3e,
  0x82, 0xa9, 0x96, 0x3b, 0x83, 0x3b, 0xd0, 0x3e, 0xe9, 0xe7, 0xe7, 0x3e,
  0xf8, 0x9b, 0xb7, 0x3e, 0x0e, 0x28, 0xe7, 0x3e, 0xa2, 0x2f, 0xbc, 0x3d,
  0x8c, 0x56, 0x13, 0x3e, 0x62, 0x8d, 0xcf, 0xbe, 0x88, 0xe3, 0x82, 0x3e,
  0xba, 0x62, 0x61, 0x3e, 0x37, 0x0d, 0xda, 0x3d, 0x7a, 0x77, 0x82, 0x3c,
  0x19, 0x76, 0xab, 0x3e, 0x6c, 0x6f, 0x2c, 0x3d, 0x3d, 0x6d, 0xcb, 0x3e,
  0xee, 0x33, 0xd7, 0x3e, 0x7b, 0x7c, 0x99, 0x3c, 0xd9, 0xd5, 0xe0, 0xbd,
  0xda, 0x3e, 0x17, 0x3e, 0x64, 0x2f, 0x86, 0x3d, 0x31, 0x06, 0xd1, 0x3e,
  0x37, 0xec, 0x31, 0x3e, 0xb9, 0xcf, 0xda, 0x3d, 0xa7, 0x80, 0x8e, 0xbe,
  0x49, 0xd6, 0x78, 0xbd, 0x3e, 0xd8, 0x81, 0x3c, 0xa3, 0x12, 0xdf, 0xbc,
  0xbd, 0x76, 0xdd, 0xbc, 0x8c, 0x3e, 0x50, 0xbd, 0x39, 0x66, 0xe6, 0x3e,
  0x76, 0xfd, 0x0e, 0x3d, 0x9a, 0x55, 0x7c, 0x3e, 0xba, 0x59, 0xae, 0x3e,
  0x4e, 0x84, 0xa7, 0x3b, 0xe2, 0x61, 0xf5, 0x3e, 0xdc, 0x24, 0x60, 0xbc,
  0x34, 0x44, 0x7f, 0x3e, 0x09, 0xb4, 0x97, 0xbe, 0xd0, 0x88, 0xa3, 0x3e,
  0xac, 0x2e, 0x2a, 0xbe, 0x9e, 0xc0, 0x8a, 0x3c, 0xfa, 0x8b, 0x1f, 0x3e,
  0x57, 0x9b, 0x00, 0xbf, 0x9e, 0x49, 0x84, 0xbc, 0xcf, 0x60, 0xc5, 0xbe,
  0x15, 0xda, 0x35, 0xbf, 0xce, 0x03, 0x8c, 0xbe, 0x64, 0xcb, 0x91, 0xbd,
  0xd6, 0x41, 0x97, 0xbd, 0x66, 0xc3, 0x2a, 0xbe, 0x26, 0xb6, 0x49, 0xbd,
  0xc2, 0x0b, 0x22, 0xbd, 0x05, 0x39, 0x34, 0xbd, 0xae, 0xdf, 0xb6, 0x3e,
  0x71, 0x57, 0xf1, 0xbd, 0x2c, 0xc4, 0xa2, 0x3e, 0x16, 0xf1, 0x85, 0x3f,
  0x6e, 0x66, 0x98, 0xbd, 0xad, 0x35, 0x02, 0xbf, 0x70, 0xe4, 0xea, 0xbe,
  0x9a, 0x36, 0xae, 0xbd, 0x94, 0xc4, 0x3e, 0x3e, 0x89, 0x3f, 0xed, 0x3e,
  0xef, 0x3b, 0x09, 0x3e, 0x67, 0xd5, 0x3f, 0x3f, 0x3b, 0x77, 0xca, 0x3d,
  0x08, 0x72, 0x87, 0xbe, 0x1d, 0xb9, 0xfd, 0x3c, 0xfb, 0xde, 0xb4, 0x3d,
  0x4c, 0x62, 0xaa, 0xbe, 0x3d, 0x19, 0xc4, 0x3d, 0x95, 0xc4, 0x07, 0xbe,
  0x25, 0x34, 0xdc, 0x3e, 0xe3, 0x2a, 0x83, 0x3e, 0xef, 0xde, 0x68, 0xbe,
  0x1e, 0xf4, 0x3d, 0x3f, 0x7d, 0xc7, 0x45, 0xbe, 0xe5, 0x1d, 0x96, 0xbe,
  0x76, 0xfb, 0x14, 0xbd, 0x18, 0x25, 0x60, 0x3e, 0xca, 0x00, 0xa1, 0xbe,
  0xd1, 0xf4, 0x80, 0x3e, 0x20, 0xd4, 0xf1, 0xbc, 0xc9, 0x1a, 0x96, 0x3c,
  0xbc, 0x45, 0x8b, 0xbd, 0x8e, 0xfc, 0xbe, 0xbe, 0x98, 0xa8, 0xbc, 0xbe,
  0xab, 0x1f, 0x28, 0x3d, 0x8a, 0x48, 0x20, 0xbe, 0xe6, 0x52, 0x00, 0x3e,
  0xd5, 0x80, 0x32, 0x3e, 0x2f, 0x83, 0xe9, 0x3d, 0xcb, 0xdf, 0x28, 0x3c,
  0xb6, 0x1d, 0xfb, 0x3c, 0xdc, 0xe1, 0xc6, 0x3c, 0xb9, 0xb5, 0x74, 0x3d,
  0xd5, 0x1c, 0xe1, 0xbc, 0x70, 0x1d, 0xce, 0x3e, 0x86, 0x22, 0x96, 0x3e,
  0xa4, 0x9f, 0x9e, 0x3e, 0xe0, 0x21, 0xbb, 0xbe, 0x39, 0xf6, 0x57, 0x3e,
  0x9c, 0xe6, 0xa5, 0xbd, 0x15, 0xe7, 0xc9, 0xbe, 0xcd, 0x16, 0x39, 0x3e,
  0xfe, 0x36, 0x30, 0x3e, 0x27, 0xa4, 0xc6, 0xbd, 0xbb, 0x63, 0x97, 0xbe,
  0xfd, 0x6d, 0xc2, 0xbc, 0xeb, 0x62, 0x15, 0xbf, 0x74, 0xa8, 0xec, 0xbd,
  0x0c, 0x3e, 0x80, 0x3a, 0x31, 0xef, 0x07, 0xbe, 0xf1, 0x23, 0xe6, 0xbd,
  0x2a, 0xff, 0x0a, 0xbd, 0x9a, 0x74, 0x6d, 0x3c, 0x75, 0x5b, 0xd4, 0x3d,
  0x9e, 0x80, 0x25, 0x3e, 0x91, 0xda, 0x71, 0x3e, 0xad, 0x63, 0x98, 0xbd,
  0x33, 0xb5, 0x17, 0x3d, 0x8e, 0x81, 0x05, 0xbe, 0x16, 0x78, 0x45, 0x3e,
  0x5f, 0x30, 0x0b, 0xbe, 0x66, 0x86, 0x18, 0xbd, 0xe6, 0xa5, 0xaa, 0xbd,
  0x12, 0xa9, 0xb5, 0xbd, 0xba, 0xc1, 0x19, 0xbe, 0x9a, 0xfa, 0xdd, 0xbd,
  0xd7, 0xd4, 0x50, 0x3d, 0xcc, 0x03, 0x7f, 0xbe, 0xde, 0x75, 0xcc, 0x3d,
  0xd6, 0x26, 0x74, 0x3e, 0x2d, 0x5c, 0xb0, 0xbd, 0xdb, 0x79, 0x44, 0xbe,
  0x1c, 0x1d, 0xdd, 0x3d, 0xf4, 0xd5, 0x01, 0xbe, 0x9d, 0x5d, 0xa7, 0x3d,
  0x18, 0xd7, 0x06, 0xbe, 0x52, 0x9b, 0x75, 0x3d, 0xa3, 0xa4, 0x24, 0xbd,
  0xc9, 0x4d, 0xdd, 0xbd, 0x7e, 0xec, 0x7b, 0x3d, 0x36, 0x2c, 0xaf, 0xbd,
  0x79, 0x0c, 0xda, 0x3c, 0x5a, 0x81, 0x3a, 0x3e, 0x3e, 0x7d, 0x0e, 0x3e,
  0x34, 0x08, 0x00, 0xbd, 0x5c, 0xed, 0xbc, 0xbd, 0xe0, 0x98, 0xfa, 0x3d,
  0x2e, 0xdb, 0xec, 0x3c, 0xea, 0x6a, 0x55, 0xbe, 0xad, 0x27, 0x5e, 0x3e,
  0x5c, 0x2b, 0xb5, 0xbd, 0xb0, 0x68, 0xa2, 0xbd, 0xaa, 0x4c, 0xed, 0x3d,
  0xc4, 0x04, 0x9f, 0x3b, 0x68, 0x02, 0xe5, 0xbd, 0x08, 0x11, 0x80, 0xbe,
  0x3e, 0x97, 0x31, 0xbe, 0x3b, 0xbe, 0x53, 0xbd, 0x37, 0xcb, 0x79, 0x3e,
  0x5a, 0x97, 0x87, 0x3d, 0x93, 0x6a, 0x06, 0xbe, 0xc9, 0x4e, 0x8e, 0xbd,
  0x2e, 0x14, 0xa3, 0xbd, 0x87, 0xf3, 0x7c, 0xbf, 0x20, 0x70, 0x25, 0xbe,
  0x9b, 0x73, 0x1f, 0x3f, 0x2d, 0xe2, 0x9f, 0xbe, 0xf3, 0x8a, 0xc5, 0x3e,
  0x88, 0x14, 0x1c, 0xbe, 0x1f, 0xe4, 0x92, 0xbe, 0x9e, 0xbf, 0xaf, 0xbd,
  0xbc, 0x87, 0xf9, 0xbe, 0xfc, 0x8f, 0x80, 0xbe, 0x9e, 0x32, 0x25, 0xbe,
  0xe5, 0x10, 0xc5, 0xbc, 0x88, 0x0d, 0x5e, 0xbe, 0xf6, 0x76, 0xb8, 0xbd,
  0xa0, 0xf5, 0xf8, 0xbd, 0x2d, 0xbd, 0x56, 0xbe, 0x3c, 0x3c, 0x09, 0x3d,
  0xdc, 0xf1, 0x8c, 0x3d, 0x02, 0x02, 0xb1, 0xbe, 0xbe, 0xfb, 0x08, 0x3f,
  0x8c, 0xca, 0x64, 0x3e, 0x04, 0x33, 0x2a, 0x3e, 0x00, 0x6c, 0x99, 0x3e,
  0x8a, 0x09, 0xbc, 0xbd, 0x19, 0xc3, 0xcd, 0xbd, 0xde, 0xcc, 0x52, 0x3d,
  0x83, 0x7c, 0xd2, 0xbe, 0x45, 0xa7, 0x22, 0x3f, 0x76, 0x26, 0xa5, 0xbe,
  0x0e, 0x0c, 0x2f, 0x3e, 0xd2, 0x4a, 0x15, 0xbf, 0x78, 0x55, 0xbd, 0xbe,
  0x56, 0xfc, 0x8a, 0x3e, 0xbe, 0xdf, 0xf1, 0xbe, 0xb0, 0xac, 0x35, 0x3e,
  0xa4, 0xb1, 0x1f, 0x3f, 0x5e, 0xb5, 0xef, 0x3c, 0xfd, 0x45, 0xd7, 0xbe,
  0x6b, 0xe7, 0xed, 0x3d, 0x6b, 0x37, 0x6c, 0xbc, 0x1e, 0xe2, 0xa8, 0x3e,
  0x2d, 0x57, 0x18, 0xbe, 0x0e, 0xdc, 0x1a, 0xbe, 0x1b, 0xfd, 0x31, 0x3e,
  0xd8, 0xd2, 0xdd, 0xbc, 0x01, 0xd8, 0x8a, 0x3d, 0x49, 0x89, 0x26, 0xbe,
  0xb9, 0x29, 0xa6, 0x3d, 0x33, 0xac, 0x9e, 0x3e, 0xe6, 0x47, 0xef, 0x3c,
  0xfa, 0x9c, 0x96, 0x3e, 0x42, 0x3c, 0xbb, 0x3c, 0x01, 0x34, 0x77, 0xbe,
  0xff, 0x12, 0x6e, 0x3d, 0xe1, 0x51, 0x99, 0x3e, 0x07, 0xfb, 0x4a, 0x3e,
  0x88, 0x65, 0xaa, 0x3d, 0x6b, 0xd6, 0xba, 0x3e, 0xb9, 0x2a, 0x6c, 0xbe,
  0x1e, 0xdb, 0xdc, 0x3c, 0xb3, 0x1f, 0x96, 0xbe, 0xfb, 0xa7, 0xa9, 0x3d,
  0xac, 0xde, 0xf9, 0xbd, 0xa3, 0xbf, 0x30, 0xbe, 0xd4, 0xfd, 0x82, 0x3e,
  0x84, 0x1d, 0xf8, 0xbe, 0x5e, 0xa6, 0x4c, 0xbe, 0x46, 0x54, 0x84, 0xbe,
  0xce, 0x29, 0x8d, 0xbe, 0x7d, 0xfb, 0x8b, 0x3e, 0x91, 0xed, 0x9f, 0x3e,
  0x8b, 0xd8, 0xe9, 0xbd, 0xcd, 0x9a, 0x9c, 0x3e, 0x74, 0x87, 0x7a, 0x3e,
  0x86, 0x4e, 0x2c, 0x3e, 0x70, 0x68, 0x53, 0xbe, 0xb4, 0x7f, 0xa1, 0x3e,
  0xe0, 0x02, 0xa7, 0xbb, 0x59, 0x02, 0x6b, 0x3e, 0x8a, 0x00, 0x8c, 0xbd,
  0xc7, 0x42, 0x14, 0xbd, 0x55, 0x6f, 0x7c, 0x3e, 0xdc, 0x97, 0x01, 0x3e,
  0xac, 0xb8, 0x8c, 0x3e, 0xbf, 0x31, 0x24, 0xbe, 0x35, 0xc9, 0x91, 0x3d,
  0xd6, 0x15, 0x30, 0xbe, 0x33, 0x9c, 0x2e, 0x3e, 0x71, 0xdf, 0x71, 0x3d,
  0x92, 0xec, 0x6b, 0xbe, 0x38, 0x2b, 0x56, 0x3e, 0xc7, 0x26, 0x10, 0xbe,
  0x87, 0x73, 0x84, 0x3d, 0x40, 0xa7, 0x80, 0x3d, 0x62, 0xd4, 0x6f, 0xbb,
  0xd7, 0xe8, 0x05, 0xbe, 0x25, 0x1c, 0x82, 0x3e, 0xe7, 0xcc, 0x52, 0xbd,
  0x37, 0x33, 0x95, 0x3e, 0x51, 0x11, 0xa6, 0x3e, 0x72, 0x6f, 0x35, 0xbe,
  0xcd, 0xf2, 0xba, 0xbd, 0x9e, 0xaf, 0x8a, 0xbd, 0x70, 0x22, 0x70, 0xbe,
  0x50, 0x4f, 0x79, 0x3d, 0x13, 0x6f, 0x93, 0xbe, 0x59, 0xba, 0x0e, 0xbe,
  0xad, 0xb7, 0x30, 0x3e, 0xeb, 0x57, 0x1a, 0x3e, 0xe6, 0x91, 0x0c, 0xbe,
  0x21, 0x54, 0x57, 0xbe, 0x8a, 0x3e, 0x11, 0x3e, 0xda, 0x7f, 0x22, 0x3e,
  0xc5, 0x05, 0xac, 0xbd, 0xb8, 0xc2, 0xdb, 0x3d, 0xe3, 0xc0, 0xc4, 0x3e,
  0x89, 0x09, 0xd1, 0x3e, 0x64, 0x6c, 0x31, 0xbd, 0x6b, 0x86, 0x05, 0xbe,
  0x12, 0x94, 0x6a, 0xbe, 0xd4, 0xb2, 0xdf, 0xbd, 0xa5, 0x27, 0xa5, 0xbd,
  0x97, 0x2a, 0xd2, 0x3e, 0x30, 0x0f, 0xbf, 0xbd, 0x73, 0x4d, 0x41, 0xbd,
  0x07, 0xbc, 0x5a, 0xbe, 0x7f, 0xdd, 0x8d, 0xbe, 0xf6, 0x82, 0x8e, 0x3d,
  0x93, 0xa9, 0xb5, 0xbf, 0x6f, 0x0e, 0xea, 0xbe, 0x2a, 0x80, 0x5f, 0xbe,
  0x96, 0x62, 0x34, 0xbf, 0x7d, 0x78, 0xed, 0xbc, 0x4e, 0x77, 0xef, 0x3d,
  0xe2, 0xe5, 0x40, 0x3f, 0xac, 0xd9, 0x11, 0x3e, 0x02, 0x4b, 0x4e, 0xbc,
  0x84, 0x28, 0x97, 0x3e, 0x5c, 0x11, 0x09, 0x3e, 0x16, 0xff, 0x00, 0xbe,
  0x19, 0x7c, 0x9f, 0xbe, 0x5c, 0x53, 0xae, 0x3d, 0x2a, 0xc6, 0x4e, 0x3f,
  0xef, 0x04, 0xad, 0xbe, 0xed, 0xea, 0x8a, 0x3d, 0x5f, 0xd7, 0x2d, 0x3e,
  0xfa, 0xa4, 0xe4, 0xbe, 0xf6, 0xd8, 0x3a, 0x3e, 0xd9, 0xa5, 0xa4, 0xbe,
  0xed, 0xca, 0x25, 0x3e, 0xc7, 0xf7, 0x09, 0xbf, 0x56, 0xd9, 0x24, 0x3f,
  0xd7, 0x49, 0x40, 0xbe, 0x61, 0x5a, 0x36, 0xbf, 0xf9, 0xe5, 0x14, 0xbf,
  0x23, 0xc6, 0x95, 0x3e, 0xda, 0x09, 0x13, 0xbd, 0xe2, 0xe8, 0xec, 0xbd,
  0xc0, 0xe7, 0x48, 0x3e, 0xb8, 0x88, 0x51, 0x3e, 0xf3, 0xaa, 0xb1, 0xbe,
  0x7f, 0x85, 0xcd, 0xbd, 0x2c, 0x98, 0x5e, 0x3e, 0xe3, 0x9a, 0xe1, 0x3e,
  0x1a, 0x23, 0x1a, 0x3e, 0xdb, 0x7c, 0x3a, 0xbe, 0xb3, 0x2c, 0xd7, 0xbd,
  0x80, 0x8d, 0x6c, 0x3e, 0xcf, 0x3c, 0x11, 0xbb, 0xbd, 0x70, 0xf7, 0xbd,
  0xbe, 0x26, 0x87, 0xbe, 0x16, 0x86, 0xac, 0xbd, 0x29, 0x9c, 0x47, 0xbe,
  0x82, 0x0e, 0x40, 0xbd, 0xad, 0x41, 0x9d, 0xbe, 0x5e, 0xc8, 0x11, 0x3f,
  0x64, 0x6a, 0xfc, 0xbd, 0x3b, 0x2d, 0xd1, 0xbe, 0xba, 0xcd, 0x3c, 0x3e,
  0xa3, 0x3a, 0x7b, 0xbe, 0x80, 0x3b, 0x7c, 0xbd, 0x73, 0x0c, 0x1e, 0x3d,
  0xe0, 0xa0, 0xc0, 0x3d, 0x9b, 0xf2, 0xe2, 0x3d, 0x7c, 0xc1, 0x38, 0xbe,
  0xf8, 0xb2, 0x01, 0x3c, 0xd7, 0xe3, 0x98, 0xbe, 0x1f, 0x8e, 0x98, 0x3e,
  0x1f, 0x5c, 0x58, 0xbe, 0x6d, 0x08, 0x00, 0xbe, 0xc4, 0x8a, 0x08, 0xbe,
  0x34, 0x3c, 0x6d, 0xbe, 0x19, 0x44, 0x8e, 0xbe, 0xac, 0x16, 0x08, 0xbe,
  0xee, 0x90, 0x28, 0xbe, 0xd6, 0xce, 0xd9, 0xbd, 0x9a, 0x6f, 0x1d, 0xbe,
  0x8e, 0xf7, 0xc1, 0xbe, 0xbd, 0x33, 0x8c, 0xbe, 0xcf, 0x78, 0x89, 0xbe,
  0x43, 0x86, 0x14, 0xbe, 0x48, 0xb1, 0x8c, 0xbe, 0x63, 0xd4, 0x25, 0x3c,
  0x4f, 0xf3, 0xef, 0xbd, 0xab, 0xcd, 0x3d, 0xbe, 0x43, 0xa1, 0x01, 0x3d,
  0x03, 0xf6, 0xaf, 0x3e, 0xb4, 0x1b, 0x7c, 0xbe, 0x44, 0x10, 0x0b, 0xbe,
  0x89, 0x3a, 0x6b, 0xbe, 0xd6, 0xcb, 0x00, 0xbe, 0x8b, 0x70, 0x3a, 0xbe,
  0x26, 0xee, 0x47, 0xbe, 0x3b, 0x40, 0x6a, 0x3e, 0xa1, 0xd3, 0x80, 0xbe,
  0x89, 0x9d, 0x42, 0xbe, 0x61, 0xd7, 0x66, 0x3d, 0x94, 0x0d, 0xd3, 0x3d,
  0xb4, 0x12, 0x80, 0xbe, 0x0b, 0xa3, 0x5f, 0xbe, 0x08, 0xec, 0x35, 0xbe,
  0x0b, 0x74, 0x90, 0xbb, 0x26, 0xbc, 0x8b, 0xbe, 0xc9, 0x71, 0x3d, 0x3e,
  0x16, 0x6d, 0x7f, 0xbe, 0x0b, 0xa9, 0xa6, 0x3e, 0xe0, 0x22, 0x09, 0x3e,
  0x48, 0x73, 0x58, 0x3e, 0xa9, 0xbd, 0xdb, 0x3c, 0x52, 0x7c, 0xc1, 0xbc,
  0xbf, 0x2d, 0x15, 0xbd, 0x07, 0x8d, 0x77, 0xbe, 0x2a, 0x1b, 0x94, 0xbe,
  0x2b, 0xc1, 0x05, 0xbd, 0x2c, 0xcb, 0xb0, 0x3e, 0xdd, 0xe9, 0xbe, 0x3e,
  0x13, 0x5a, 0x82, 0xbe, 0xf7, 0x84, 0x3d, 0xbe, 0x6d, 0xab, 0x5d, 0xbe,
  0x54, 0xf1, 0xc5, 0xba, 0x7d, 0xc4, 0x5e, 0xbd, 0xe4, 0x65, 0x8b, 0x3e,
  0xa7, 0xa0, 0xc0, 0xbe, 0x74, 0x39, 0x92, 0xbe, 0x85, 0x7b, 0x6f, 0xbe,
  0x42, 0xad, 0x94, 0xbf, 0x35, 0xea, 0x3c, 0x3d, 0x81, 0xae, 0x19, 0xbe,
  0xfa, 0x08, 0xa5, 0xbe, 0x6b, 0xe1, 0xca, 0x3c, 0x89, 0x45, 0x17, 0xbf,
  0x3d, 0xc5, 0x9b, 0xbe, 0x7c, 0x3f, 0x16, 0xbe, 0x7a, 0x5d, 0x7f, 0xbf,
  0xdc, 0x5c, 0x51, 0x3e, 0xf7, 0x9a, 0xdb, 0xbe, 0x8b, 0x8d, 0x22, 0x3d,
  0xc7, 0xea, 0x2b, 0x3f, 0xcb, 0x8b, 0x27, 0xbf, 0x9e, 0x5b, 0xbb, 0x3e,
  0x9c, 0x17, 0x1b, 0xbe, 0xa4, 0xf9, 0x13, 0xbd, 0x98, 0xd4, 0x8a, 0x3b,
  0xde, 0x50, 0x78, 0xbd, 0x0c, 0x5a, 0x87, 0xbf, 0xdc, 0xd6, 0x7b, 0x3d,
  0xbd, 0xb8, 0x84, 0x3d, 0xfe, 0x2f, 0x04, 0x3c, 0x09, 0x0c, 0x7d, 0xbe,
  0xc9, 0x8b, 0x54, 0xbd, 0xa5, 0x36, 0x9d, 0x3e, 0x8a, 0xe2, 0x0d, 0xbd,
  0xae, 0x26, 0x0c, 0x3f, 0x90, 0xde, 0x7f, 0x3e, 0x61, 0xdf, 0x0a, 0xbf,
  0xf3, 0x23, 0xdf, 0x3e, 0x4f, 0x0b, 0x00, 0xbf, 0x6a, 0xf8, 0x05, 0xbd,
  0x52, 0x76, 0x5d, 0xbe, 0x02, 0xbc, 0xc7, 0xbb, 0x50, 0xa1, 0x14, 0xbf,
  0xf6, 0xcf, 0xd7, 0xbe, 0xbd, 0x06, 0x7d, 0x3e, 0x0b, 0xef, 0xe2, 0xbd,
  0x63, 0xb7, 0xc1, 0xbe, 0x59, 0xec, 0xe9, 0xbc, 0xd8, 0x91, 0xa4, 0xbe,
  0xf7, 0x7d, 0x10, 0xbe, 0x10, 0x52, 0x3b, 0xbe, 0x59, 0xdd, 0xb7, 0x3e,
  0x7a, 0xa5, 0x5f, 0xbd, 0x3e, 0xcf, 0xce, 0xbb, 0xf1, 0xcc, 0xd6, 0xbd,
  0xd1, 0x6e, 0x79, 0x3e, 0x14, 0xe8, 0x47, 0x3e, 0x20, 0xa5, 0x7e, 0x3e,
  0x20, 0x72, 0x0d, 0x3b, 0xae, 0x70, 0x0a, 0x3e, 0xb3, 0xa1, 0x62, 0x3e,
  0x1a, 0x51, 0x8d, 0xbd, 0xfd, 0xf7, 0x17, 0x3d, 0x7b, 0x83, 0x8d, 0x3e,
  0x9e, 0xbf, 0x3c, 0x3d, 0xf2, 0xbc, 0x14, 0x3e, 0x63, 0xb2, 0x58, 0x3e,
  0xd9, 0x90, 0xe4, 0x3c, 0xcd, 0x5f, 0xa6, 0xba, 0xea, 0x1a, 0x36, 0xbe,
  0x9c, 0xae, 0x9f, 0xbd, 0x32, 0xfc, 0xf3, 0xbe, 0xd9, 0x85, 0x17, 0x3e,
  0xb1, 0x21, 0xfa, 0x3d, 0x50, 0xd5, 0x24, 0xbe, 0xc0, 0x01, 0xac, 0xbe,
  0x71, 0xe2, 0x28, 0x3e, 0x3d, 0x18, 0x67, 0xbd, 0x99, 0xbe, 0x60, 0x3e,
  0x32, 0x08, 0x74, 0x3e, 0xd5, 0x13, 0x2e, 0xbe, 0x4b, 0xb1, 0x33, 0xbe,
  0x85, 0x1e, 0xc0, 0xbd, 0xda, 0x66, 0x2b, 0x3e, 0x3e, 0x9c, 0x8d, 0x3d,
  0x94, 0xce, 0x48, 0xbd, 0xde, 0xdd, 0xaa, 0xbd, 0x25, 0x17, 0xda, 0xbc,
  0x98, 0xf2, 0x90, 0xbd, 0x79, 0x94, 0xcd, 0x3d, 0xa9, 0xf3, 0xa7, 0x3e,
  0x63, 0x9e, 0x16, 0xbf, 0x2d, 0xcd, 0x80, 0xbe, 0xd4, 0xeb, 0x5d, 0xbe,
  0x96, 0xe8, 0xb9, 0xbe, 0xbd, 0xe5, 0x74, 0xbe, 0x4e, 0x9f, 0xd3, 0xbd,
  0x81, 0x5a, 0x10, 0x3d, 0x4e, 0x96, 0x24, 0x3e, 0xc8, 0xed, 0x1d, 0x3d,
  0xf7, 0xc7, 0x8f, 0xbe, 0x7e, 0xad, 0xb7, 0x3e, 0x9a, 0x47, 0xa6, 0x3c,
  0x4f, 0x71, 0x5c, 0xbd, 0x81, 0x87, 0xba, 0xbd, 0x7e, 0xde, 0xe4, 0x3d,
  0x58, 0x90, 0xab, 0x3d, 0xdc, 0x27, 0xda, 0x3e, 0x23, 0x4e, 0x81, 0xbe,
  0x3f, 0x17, 0x6f, 0xbd, 0x98, 0xcd, 0xef, 0xbb, 0x72, 0x3a, 0x38, 0xbe,
  0x7e, 0x72, 0x63, 0x3e, 0xce, 0x73, 0x94, 0xbd, 0x72, 0xe3, 0x09, 0xbe,
  0x7c, 0x9d, 0x87, 0x3c, 0x30, 0xa0, 0x33, 0xbe, 0x0f, 0x22, 0x68, 0xbe,
  0x8b, 0x25, 0xc4, 0xbd, 0xe4, 0xab, 0xb2, 0x3d, 0x7b, 0x81, 0x38, 0xbe,
  0x42, 0xcb, 0xa1, 0xbe, 0xf0, 0xd6, 0xbf, 0xbd, 0x3e, 0xd3, 0xbf, 0xbd,
  0xec, 0x91, 0xfe, 0xbd, 0x5c, 0x02, 0xdc, 0xbd, 0x52, 0x71, 0x66, 0xbe,
  0xb8, 0x09, 0x0a, 0x3d, 0x19, 0x50, 0xd7, 0xbe, 0x3e, 0x87, 0x65, 0xbe,
  0xf5, 0xcc, 0x13, 0xbe, 0xfd, 0x66, 0x30, 0xbe, 0xd1, 0xdc, 0x97, 0x3e,
  0xfb, 0xda, 0x8b, 0x3d, 0x91, 0xcd, 0xa6, 0xbd, 0x1f, 0x58, 0x62, 0xbc,
  0xeb, 0x24, 0x06, 0xbf, 0x23, 0x42, 0x35, 0xbe, 0x7b, 0xb2, 0xc9, 0x3e,
  0x21, 0xe1, 0x4e, 0xbe, 0x59, 0xe8, 0xf1, 0xbd, 0x45, 0x8e, 0x99, 0x3d,
  0x87, 0xb4, 0x09, 0xbc, 0x22, 0x95, 0x54, 0x3e, 0x51, 0x92, 0x15, 0xbe,
  0xe7, 0x16, 0xf2, 0xbd, 0x8a, 0x4b, 0xbb, 0xbe, 0xa9, 0x29, 0xfc, 0x3e,
  0xd1, 0xcd, 0xcb, 0x3e, 0x24, 0x3a, 0xd4, 0x3e, 0xbf, 0xf4, 0xa1, 0x3e,
  0x9a, 0x9a, 0xc5, 0xbe, 0xd6, 0x7e, 0x53, 0xbe, 0x82, 0x4d, 0x15, 0xbe,
  0x08, 0xfe, 0xc5, 0xbe, 0x96, 0x0f, 0x3a, 0x3e, 0x6e, 0xf1, 0x67, 0x3e,
  0x72, 0xe4, 0x46, 0xbe, 0x41, 0x7c, 0x40, 0xbf, 0x6b, 0x76, 0x29, 0xbf,
  0x09, 0x2b, 0x54, 0x3e, 0xe4, 0xe1, 0xd4, 0xbe, 0x03, 0xa6, 0x1d, 0x3e,
  0x4c, 0x2f, 0x30, 0x3f, 0x37, 0x14, 0x6f, 0x3e, 0x92, 0xd2, 0xa7, 0x3d,
  0xef, 0xba, 0xde, 0x3d, 0xce, 0x62, 0x73, 0xbe, 0x9b, 0xc7, 0x4c, 0x3e,
  0xd8, 0xac, 0x4a, 0xbe, 0xc1, 0x1e, 0x09, 0xbe, 0x4d, 0x02, 0x0d, 0x3e,
  0xd7, 0xa4, 0xb4, 0xbd, 0x44, 0x6d, 0xf6, 0x3d, 0xfa, 0x29, 0x5a, 0x3e,
  0x51, 0x48, 0x87, 0x3e, 0xcb, 0x73, 0x8f, 0x3e, 0xfb, 0x94, 0x70, 0x3e,
  0xca, 0x84, 0x23, 0x3e, 0x08, 0x8b, 0x85, 0x3e, 0x13, 0x0b, 0x8a, 0xbe,
  0xb3, 0xb1, 0xf1, 0xbd, 0x01, 0x9f, 0xe0, 0x3d, 0x1d, 0x4a, 0x50, 0x3d,
  0xbb, 0xc7, 0x4b, 0x3e, 0xac, 0x6d, 0xa7, 0x3e, 0x4e, 0x7e, 0x86, 0x3e,
  0xa2, 0x29, 0xc7, 0xbd, 0x73, 0x52, 0x28, 0xbe, 0x7f, 0x73, 0x2c, 0xbe,
  0x3a, 0xef, 0x8b, 0x3e, 0x28, 0x2c, 0xd0, 0xbd, 0x43, 0xbb, 0xd6, 0xbd,
  0xa4, 0x5c, 0x06, 0xbf, 0xb0, 0x65, 0x87, 0x3e, 0xb5, 0x8e, 0xa6, 0x3e,
  0x3d, 0x5e, 0xe2, 0x3d, 0x84, 0x03, 0xc5, 0x3e, 0x44, 0xfb, 0x8d, 0xbd,
  0x33, 0xe4, 0xa6, 0xbc, 0xad, 0x71, 0xa4, 0x3e, 0x64, 0x98, 0xde, 0x3e,
  0x62, 0x4c, 0xd5, 0x3e, 0x79, 0x5c, 0xfa, 0x3e, 0x00, 0x86, 0x54, 0x3d,
  0xab, 0x21, 0x8b, 0x3d, 0xa8, 0xad, 0x5f, 0x3e, 0x59, 0x19, 0xb6, 0x3e,
  0x40, 0xcc, 0x31, 0x3e, 0x71, 0x5c, 0x11, 0x3e, 0xa1, 0x4c, 0x80, 0x3e,
  0x10, 0xf5, 0xe8, 0x3e, 0x5a, 0x1e, 0x46, 0xbe, 0x3a, 0xbf, 0xf7, 0x3d,
  0x15, 0x4e, 0xfc, 0x3d, 0x91, 0xe9, 0x96, 0x3d, 0x6a, 0x32, 0xd8, 0x3c,
  0xaf, 0x10, 0x32, 0xbe, 0x83, 0x37, 0xd6, 0x3e, 0xc8, 0xa9, 0x66, 0xbd,
  0xa2, 0xc0, 0x73, 0x3e, 0x14, 0xb9, 0x69, 0x3e, 0xa5, 0xb1, 0x70, 0x3b,
  0x65, 0x8d, 0x69, 0x3d, 0xf3, 0x4a, 0x02, 0xbe, 0x44, 0xcd, 0xb4, 0x3c,
  0x9f, 0x59, 0x1a, 0x3e, 0xd3, 0x2e, 0x7f, 0x3e, 0x4f, 0xec, 0x8b, 0x3e,
  0x2f, 0x40, 0x6a, 0xbd, 0x43, 0x0a, 0xb2, 0xbd, 0x0a, 0x45, 0x28, 0xbe,
  0x24, 0xc8, 0xff, 0xbd, 0x84, 0x9d, 0x44, 0xbe, 0xa5, 0xd2, 0x24, 0xbe,
  0xf4, 0x8a, 0x38, 0x3e, 0x74, 0x6a, 0x8e, 0x3e, 0x88, 0x72, 0x9a, 0x3d,
  0xfb, 0xf3, 0x74, 0x3e, 0x5a, 0xd3, 0x0a, 0x3e, 0x84, 0xa3, 0x62, 0xbe,
  0x33, 0x38, 0xe3, 0x3d, 0x31, 0xc1, 0x21, 0xbd, 0x26, 0x90, 0x7f, 0x3e,
  0xd5, 0xc4, 0x76, 0x3e, 0x1c, 0x6d, 0x3a, 0xbe, 0x7d, 0xd7, 0x0d, 0xbe,
  0xba, 0x2b, 0x80, 0xbc, 0x34, 0xb0, 0x92, 0xbe, 0x13, 0xff, 0xbb, 0x3d,
  0x82, 0xe4, 0x20, 0x3e, 0x73, 0x02, 0x8a, 0xbe, 0x14, 0x13, 0x02, 0xbf,
  0xb8, 0x8f, 0x55, 0xbe, 0xb4, 0x9d, 0x9d, 0xbe, 0xc9, 0x90, 0x9d, 0xbe,
  0x7c, 0x3e, 0xc2, 0xbf, 0x62, 0x1d, 0x59, 0x3e, 0x06, 0x5a, 0x98, 0xbe,
  0x49, 0xe2, 0xa9, 0xbf, 0xf2, 0x54, 0xa0, 0xbd, 0xe0, 0x0f, 0x65, 0xbe,
  0x0a, 0x1f, 0xba, 0x3f, 0x8b, 0x64, 0x00, 0x3e, 0xde, 0xb6, 0xd7, 0xbc,
  0x4f, 0x43, 0x05, 0xbe, 0x98, 0x53, 0xfd, 0xbc, 0x6f, 0xff, 0xe4, 0x3d,
  0x5d, 0x31, 0x66, 0x3c, 0x14, 0xc0, 0xba, 0x3c, 0x6e, 0x76, 0xc4, 0x3e,
  0x5f, 0x16, 0x72, 0xbe, 0xfe, 0xee, 0xb4, 0xbe, 0x5b, 0x4e, 0xa7, 0xbe,
  0x31, 0xff, 0x0a, 0xbf, 0x8c, 0xea, 0x71, 0xbe, 0x4b, 0x46, 0xa6, 0xbb,
  0x70, 0x46, 0x00, 0x3e, 0x62, 0xf4, 0x87, 0x3e, 0x82, 0x9c, 0x1a, 0x3e,
  0xe6, 0xac, 0x04, 0x3b, 0xdc, 0x45, 0x79, 0xbd, 0x83, 0x1c, 0x1f, 0xbe,
  0x7e, 0x3e, 0x82, 0xbf, 0x0e, 0xeb, 0x68, 0x3e, 0xb5, 0xc8, 0x2c, 0xbd,
  0x38, 0xcb, 0x1e, 0xbf, 0x3a, 0x8c, 0x15, 0xbe, 0xf3, 0x9b, 0x8a, 0x3e,
  0xc5, 0xe6, 0xfb, 0xbd, 0xf1, 0x0d, 0x61, 0x3d, 0xf6, 0x5d, 0x99, 0x3c,
  0x11, 0x69, 0x86, 0xbe, 0x67, 0xbb, 0x22, 0x3e, 0x8b, 0xbe, 0x77, 0xbe,
  0x27, 0xd7, 0x48, 0x3e, 0x33, 0x27, 0x4a, 0x3d, 0x74, 0xe5, 0x9f, 0x3d,
  0x39, 0xcf, 0x2e, 0x3d, 0xcb, 0xd4, 0x23, 0x3e, 0xc4, 0xe6, 0xd4, 0x3c,
  0x97, 0xb9, 0x2d, 0xbe, 0xa5, 0x6e, 0x00, 0x3e, 0x7b, 0xe9, 0x8e, 0x3d,
  0xe5, 0xf9, 0x38, 0xbd, 0x00, 0x08, 0x8b, 0xbe, 0xd7, 0x15, 0x50, 0xbd,
  0x9c, 0x99, 0x02, 0xbe, 0x76, 0x0e, 0x28, 0x3a, 0xa7, 0x07, 0xa9, 0xbe,
  0x00, 0x17, 0xf9, 0xbe, 0x42, 0x1c, 0x46, 0x3d, 0x37, 0x46, 0x0b, 0xbe,
  0xd2, 0x88, 0x49, 0xbe, 0xdd, 0xed, 0xf7, 0xbd, 0x29, 0x6d, 0x99, 0xbe,
  0x4c, 0xc5, 0x97, 0xbe, 0x31, 0xbe, 0x08, 0x3e, 0xee, 0xd0, 0x13, 0x3d,
  0xf5, 0xb1, 0xa4, 0xbd, 0xa8, 0x2a, 0x8b, 0xbe, 0xfe, 0x96, 0xc0, 0xbd,
  0xbd, 0xe3, 0xaa, 0x3d, 0xa3, 0xc8, 0x4b, 0xbe, 0xa0, 0xee, 0x87, 0x3d,
  0x7b, 0x7f, 0xcf, 0xbb, 0xb1, 0xfb, 0x8a, 0xbe, 0xc7, 0xa6, 0x6c, 0xbe,
  0x6e, 0xc8, 0x3a, 0xbe, 0xee, 0x31, 0xc9, 0x3d, 0x88, 0x80, 0xaa, 0x3d,
  0x45, 0x01, 0xb0, 0x3d, 0x49, 0x47, 0xf3, 0xbd, 0x24, 0xea, 0x8b, 0xbe,
  0xf6, 0x72, 0x6b, 0x3e, 0x1a, 0x56, 0x55, 0x3c, 0x04, 0x79, 0x37, 0xbe,
  0x2f, 0x05, 0xa3, 0xbd, 0x80, 0x1e, 0x40, 0x3f, 0x09, 0xfd, 0x84, 0xbe,
  0x0d, 0xea, 0xaa, 0xbd, 0xba, 0x85, 0x86, 0x3e, 0xf3, 0xfd, 0x33, 0xbd,
  0x38, 0xe8, 0x05, 0xbe, 0x5c, 0xa0, 0x07, 0xbe, 0x32, 0xc9, 0x38, 0x3e,
  0x50, 0xee, 0x0a, 0xbe, 0xae, 0x72, 0x8c, 0x3e, 0x11, 0xb2, 0x81, 0xbe,
  0x60, 0xc6, 0x95, 0xbe, 0x64, 0xc4, 0x64, 0xbe, 0x89, 0xf9, 0x7d, 0xbe,
  0x24, 0x3b, 0x48, 0x3e, 0x26, 0x4d, 0x3b, 0xbe, 0x73, 0x8f, 0x96, 0xbd,
  0xb8, 0x1c, 0xd6, 0xbc, 0x34, 0xa0, 0x5a, 0x3e, 0x60, 0x1e, 0xaa, 0xbe,
  0x17, 0x67, 0xfb, 0xbd, 0xb4, 0x8d, 0x9d, 0xbe, 0x3b, 0x23, 0x8e, 0x3d,
  0x75, 0x2f, 0x11, 0xbd, 0x79, 0xd1, 0x9a, 0xbd, 0xdd, 0x8a, 0x21, 0xba,
  0xe8, 0x73, 0x94, 0xbe, 0xfd, 0xa8, 0x95, 0xbe, 0xef, 0x4a, 0x38, 0x3d,
  0xaa, 0x8f, 0x42, 0xbe, 0x07, 0x09, 0x1f, 0xbe, 0x4f, 0x3a, 0x50, 0x3d,
  0xe3, 0x76, 0x6f, 0xbd, 0x83, 0x0e, 0xa6, 0x3d, 0x26, 0xfe, 0xff, 0xff,
  0x04, 0x00, 0x00, 0x00, 0x28, 0x00, 0x00, 0x00, 0x97, 0x7f, 0x83, 0x3e,
  0xb8, 0x2b, 0xbd, 0x3d, 0xba, 0x5d, 0x0e, 0xbc, 0xa1, 0x2a, 0xbb, 0x3d,
  0x83, 0x55, 0x8a, 0x3e, 0x45, 0xd5, 0x30, 0x3d, 0x6c, 0x79, 0x82, 0x3d,
  0x82, 0x8c, 0x85, 0x3e, 0x62, 0xb3, 0x23, 0x3b, 0x5f, 0x7d, 0x49, 0x3e,
  0x5a, 0xfe, 0xff, 0xff, 0x04, 0x00, 0x00, 0x00, 0xc8, 0x00, 0x00, 0x00,
  0xb6, 0xa9, 0x63, 0xbe, 0x57, 0x8d, 0xe9, 0x3d, 0xee, 0xcc, 0x48, 0x3e,
  0x35, 0x29, 0x14, 0x3e, 0xdb, 0x1a, 0x2f, 0x3e, 0x10, 0x81, 0x8f, 0xbd,
  0x46, 0xd8, 0x55, 0xbd, 0x28, 0x4a, 0x02, 0x3e, 0xef, 0xdd, 0x83, 0x3d,
  0x96, 0xf3, 0x51, 0x3e, 0xf8, 0x44, 0x13, 0x3e, 0x11, 0xef, 0x8c, 0x3e,
  0x1e, 0xd5, 0x37, 0x3e, 0xed, 0x48, 0xd6, 0xbd, 0x86, 0xd8, 0x5b, 0x3d,
  0x79, 0x30, 0xa4, 0x3d, 0x40, 0x25, 0xf5, 0x3d, 0x9c, 0x9a, 0xe0, 0x3d,
  0x4f, 0x36, 0x2d, 0x3e, 0xea, 0xf6, 0x2c, 0x3e, 0x1d, 0x0d, 0x4a, 0x3e,
  0xb9, 0x40, 0x18, 0x3e, 0xac, 0xbe, 0xc9, 0x3d, 0xc7, 0xb8, 0xfa, 0xbb,
  0xb2, 0xbf, 0x51, 0x3d, 0xd1, 0x0a, 0xf4, 0x3d, 0xfb, 0x50, 0x4e, 0x3e,
  0xa8, 0xa7, 0x53, 0x3e, 0xc3, 0x55, 0x4a, 0x3d, 0x23, 0x49, 0x0d, 0x3e,
  0x7f, 0xcd, 0xe1, 0x3c, 0x0a, 0xa6, 0x19, 0x3e, 0x97, 0xcc, 0x26, 0x3d,
  0xb1, 0x08, 0x0a, 0x3e, 0xed, 0x8d, 0x0f, 0x3d, 0xf7, 0x22, 0x47, 0x3d,
  0x9f, 0x7c, 0x8c, 0x3e, 0xfa, 0x59, 0x34, 0x3e, 0x03, 0x43, 0x8b, 0xbd,
  0x4c, 0x7e, 0x8b, 0x3e, 0xc5, 0xcb, 0xd4, 0x3d, 0xb8, 0xc9, 0x18, 0xbe,
  0x48, 0xff, 0xdf, 0x3d, 0xe0, 0x1d, 0x5e, 0x3d, 0x7f, 0x3b, 0x09, 0x3e,
  0xd4, 0xd4, 0x4e, 0xbd, 0x4e, 0x53, 0x2b, 0x3e, 0x08, 0x64, 0x02, 0x3e,
  0x66, 0xb9, 0x20, 0x3e, 0x24, 0x46, 0x47, 0x3d, 0x2e, 0xff, 0xff, 0xff,
  0x04, 0x00, 0x00, 0x00, 0x28, 0x00, 0x00, 0x00, 0x7f, 0x78, 0x88, 0x3e,
  0x7e, 0x4c, 0xd4, 0x3d, 0x42, 0x31, 0xb4, 0x3e, 0x96, 0x71, 0x59, 0x3e,
  0x01, 0x9b, 0x06, 0x3e, 0xfc, 0x4f, 0xa8, 0x3d, 0xf2, 0x7c, 0x5c, 0xbd,
  0x16, 0x25, 0x26, 0x3e, 0x92, 0xac, 0x53, 0xbd, 0x76, 0x3d, 0x81, 0x3e,
  0x90, 0xf8, 0xff, 0xff, 0x94, 0xf8, 0xff, 0xff, 0x0f, 0x00, 0x00, 0x00,
  0x4d, 0x4c, 0x49, 0x52, 0x20, 0x43, 0x6f, 0x6e, 0x76, 0x65, 0x72, 0x74,
  0x65, 0x64, 0x2e, 0x00, 0x01, 0x00, 0x00, 0x00, 0x14, 0x00, 0x00, 0x00,
  0x00, 0x00, 0x0e, 0x00, 0x18, 0x00, 0x14, 0x00, 0x10, 0x00, 0x0c, 0x00,
  0x08, 0x00, 0x04, 0x00, 0x0e, 0x00, 0x00, 0x00, 0x14, 0x00, 0x00, 0x00,
  0x1c, 0x00, 0x00, 0x00, 0x90, 0x01, 0x00, 0x00, 0x94, 0x01, 0x00, 0x00,
  0x98, 0x01, 0x00, 0x00, 0x04, 0x00, 0x00, 0x00, 0x6d, 0x61, 0x69, 0x6e,
  0x00, 0x00, 0x00, 0x00, 0x06, 0x00, 0x00, 0x00, 0x38, 0x01, 0x00, 0x00,
  0xf0, 0x00, 0x00, 0x00, 0xb8, 0x00, 0x00, 0x00, 0x84, 0x00, 0x00, 0x00,
  0x50, 0x00, 0x00, 0x00, 0x14, 0x00, 0x00, 0x00, 0x00, 0x00, 0x0e, 0x00,
  0x1a, 0x00, 0x14, 0x00, 0x10, 0x00, 0x0c, 0x00, 0x0b, 0x00, 0x04, 0x00,
  0x0e, 0x00, 0x00, 0x00, 0x1c, 0x00, 0x00, 0x00, 0x00, 0x00, 0x00, 0x09,
  0x1c, 0x00, 0x00, 0x00, 0x20, 0x00, 0x00, 0x00, 0x01, 0x00, 0x00, 0x00,
  0x00, 0x00, 0x06, 0x00, 0x08, 0x00, 0x04, 0x00, 0x06, 0x00, 0x00, 0x00,
  0x00, 0x00, 0x80, 0x3f, 0x01, 0x00, 0x00, 0x00, 0x0f, 0x00, 0x00, 0x00,
  0x01, 0x00, 0x00, 0x00, 0x0e, 0x00, 0x00, 0x00, 0x36, 0xff, 0xff, 0xff,
  0x10, 0x00, 0x00, 0x00, 0x00, 0x00, 0x00, 0x08, 0x0c, 0x00, 0x00, 0x00,
  0x10, 0x00, 0x00, 0x00, 0x60, 0xf9, 0xff, 0xff, 0x01, 0x00, 0x00, 0x00,
  0x0e, 0x00, 0x00, 0x00, 0x03, 0x00, 0x00, 0x00, 0x0d, 0x00, 0x00, 0x00,
  0x08, 0x00, 0x00, 0x00, 0x09, 0x00, 0x00, 0x00, 0x66, 0xff, 0xff, 0xff,
  0x10, 0x00, 0x00, 0x00, 0x00, 0x00, 0x00, 0x08, 0x0c, 0x00, 0x00, 0x00,
  0x10, 0x00, 0x00, 0x00, 0x90, 0xf9, 0xff, 0xff, 0x01, 0x00, 0x00, 0x00,
  0x0d, 0x00, 0x00, 0x00, 0x03, 0x00, 0x00, 0x00, 0x0c, 0x00, 0x00, 0x00,
  0x07, 0x00, 0x00, 0x00, 0xff, 0xff, 0xff, 0xff, 0x96, 0xff, 0xff, 0xff,
  0x10, 0x00, 0x00, 0x00, 0x00, 0x00, 0x00, 0x08, 0x10, 0x00, 0x00, 0x00,
  0x14, 0x00, 0x00, 0x00, 0x86, 0xff, 0xff, 0xff, 0x00, 0x00, 0x00, 0x01,
  0x01, 0x00, 0x00, 0x00, 0x0c, 0x00, 0x00, 0x00, 0x03, 0x00, 0x00, 0x00,
  0x0b, 0x00, 0x00, 0x00, 0x06, 0x00, 0x00, 0x00, 0x01, 0x00, 0x00, 0x00,
  0xca, 0xff, 0xff, 0xff, 0x10, 0x00, 0x00, 0x00, 0x00, 0x00, 0x00, 0x08,
  0x10, 0x00, 0x00, 0x00, 0x14, 0x00, 0x00, 0x00, 0xba, 0xff, 0xff, 0xff,
  0x00, 0x00, 0x00, 0x01, 0x01, 0x00, 0x00, 0x00, 0x0b, 0x00, 0x00, 0x00,
  0x03, 0x00, 0x00, 0x00, 0x0a, 0x00, 0x00, 0x00, 0x05, 0x00, 0x00, 0x00,
  0x02, 0x00, 0x00, 0x00, 0x00, 0x00, 0x0e, 0x00, 0x16, 0x00, 0x00, 0x00,
  0x10, 0x00, 0x0c, 0x00, 0x0b, 0x00, 0x04, 0x00, 0x0e, 0x00, 0x00, 0x00,
  0x18, 0x00, 0x00, 0x00, 0x00, 0x00, 0x00, 0x08, 0x18, 0x00, 0x00, 0x00,
  0x1c, 0x00, 0x00, 0x00, 0x00, 0x00, 0x06, 0x00, 0x08, 0x00, 0x07, 0x00,
  0x06, 0x00, 0x00, 0x00, 0x00, 0x00, 0x00, 0x01, 0x01, 0x00, 0x00, 0x00,
  0x0a, 0x00, 0x00, 0x00, 0x03, 0x00, 0x00, 0x00, 0x00, 0x00, 0x00, 0x00,
  0x04, 0x00, 0x00, 0x00, 0x03, 0x00, 0x00, 0x00, 0x01, 0x00, 0x00, 0x00,
  0x0f, 0x00, 0x00, 0x00, 0x01, 0x00, 0x00, 0x00, 0x00, 0x00, 0x00, 0x00,
  0x10, 0x00, 0x00, 0x00, 0x68, 0x05, 0x00, 0x00, 0x1c, 0x05, 0x00, 0x00,
  0xd4, 0x04, 0x00, 0x00, 0xa0, 0x04, 0x00, 0x00, 0x5c, 0x04, 0x00, 0x00,
  0x14, 0x04, 0x00, 0x00, 0xcc, 0x03, 0x00, 0x00, 0x84, 0x03, 0x00, 0x00,
  0x3c, 0x03, 0x00, 0x00, 0xdc, 0x02, 0x00, 0x00, 0x58, 0x02, 0x00, 0x00,
  0xcc, 0x01, 0x00, 0x00, 0x40, 0x01, 0x00, 0x00, 0xe8, 0x00, 0x00, 0x00,
  0x5c, 0x00, 0x00, 0x00, 0x04, 0x00, 0x00, 0x00, 0xec, 0xfa, 0xff, 0xff,
  0x14, 0x00, 0x00, 0x00, 0x1c, 0x00, 0x00, 0x00, 0x1c, 0x00, 0x00, 0x00,
  0x10, 0x00, 0x00, 0x00, 0x34, 0x00, 0x00, 0x00, 0x02, 0x00, 0x00, 0x00,
  0xff, 0xff, 0xff, 0xff, 0x02, 0x00, 0x00, 0x00, 0xd8, 0xfa, 0xff, 0xff,
  0x19, 0x00, 0x00, 0x00, 0x53, 0x74, 0x61, 0x74, 0x65, 0x66, 0x75, 0x6c,
  0x50, 0x61, 0x72, 0x74, 0x69, 0x74, 0x69, 0x6f, 0x6e, 0x65, 0x64, 0x43,
  0x61, 0x6c, 0x6c, 0x3a, 0x30, 0x00, 0x00, 0x00, 0x02, 0x00, 0x00, 0x00,
  0x01, 0x00, 0x00, 0x00, 0x02, 0x00, 0x00, 0x00, 0x40, 0xfb, 0xff, 0xff,
  0x14, 0x00, 0x00, 0x00, 0x1c, 0x00, 0x00, 0x00, 0x1c, 0x00, 0x00, 0x00,
  0x0f, 0x00, 0x00, 0x00, 0x68, 0x00, 0x00, 0x00, 0x02, 0x00, 0x00, 0x00,
  0xff, 0xff, 0xff, 0xff, 0x02, 0x00, 0x00, 0x00, 0x2c, 0xfb, 0xff, 0xff,
  0x4f, 0x00, 0x00, 0x00, 0x73, 0x65, 0x71, 0x75, 0x65, 0x6e, 0x74, 0x69,
  0x61, 0x6c, 0x2f, 0x64, 0x65, 0x6e, 0x73, 0x65, 0x5f, 0x33, 0x2f, 0x42,
  0x69, 0x61, 0x73, 0x41, 0x64, 0x64, 0x3b, 0x73, 0x65, 0x71, 0x75, 0x65,
  0x6e, 0x74, 0x69, 0x61, 0x6c, 0x2f, 0x64, 0x65, 0x6e, 0x73, 0x65, 0x5f,
  0x34, 0x2f, 0x4d, 0x61, 0x74, 0x4d, 0x75, 0x6c, 0x3b, 0x73, 0x65, 0x71,
  0x75, 0x65, 0x6e, 0x74, 0x69, 0x61, 0x6c, 0x2f, 0x64, 0x65, 0x6e, 0x73,
  0x65, 0x5f, 0x34, 0x2f, 0x42, 0x69, 0x61, 0x73, 0x41, 0x64, 0x64, 0x00,
  0x02, 0x00, 0x00, 0x00, 0x01, 0x00, 0x00, 0x00, 0x02, 0x00, 0x00, 0x00,
  0xc8, 0xfb, 0xff, 0xff, 0x14, 0x00, 0x00, 0x00, 0x1c, 0x00, 0x00, 0x00,
  0x1c, 0x00, 0x00, 0x00, 0x0e, 0x00, 0x00, 0x00, 0x34, 0x00, 0x00, 0x00,
  0x02, 0x00, 0x00, 0x00, 0xff, 0xff, 0xff, 0xff, 0x01, 0x00, 0x00, 0x00,
  0xb4, 0xfb, 0xff, 0xff, 0x1a, 0x00, 0x00, 0x00, 0x73, 0x65, 0x71, 0x75,
  0x65, 0x6e, 0x74, 0x69, 0x61, 0x6c, 0x2f, 0x64, 0x65, 0x6e, 0x73, 0x65,
  0x5f, 0x33, 0x2f, 0x4d, 0x61, 0x74, 0x4d, 0x75, 0x6c, 0x31, 0x00, 0x00,
  0x02, 0x00, 0x00, 0x00, 0x01, 0x00, 0x00, 0x00, 0x01, 0x00, 0x00, 0x00,
  0x1c, 0xfc, 0xff, 0xff, 0x14, 0x00, 0x00, 0x00, 0x1c, 0x00, 0x00, 0x00,
  0x1c, 0x00, 0x00, 0x00, 0x0d, 0x00, 0x00, 0x00, 0x68, 0x00, 0x00, 0x00,
  0x02, 0x00, 0x00, 0x00, 0xff, 0xff, 0xff, 0xff, 0x0a, 0x00, 0x00, 0x00,
  0x08, 0xfc, 0xff, 0xff, 0x4c, 0x00, 0x00, 0x00, 0x73, 0x65, 0x71, 0x75,
  0x65, 0x6e, 0x74, 0x69, 0x61, 0x6c, 0x2f, 0x64, 0x65, 0x6e, 0x73, 0x65,
  0x5f, 0x32, 0x2f, 0x4d, 0x61, 0x74, 0x4d, 0x75, 0x6c, 0x3b, 0x73, 0x65,
  0x71, 0x75, 0x65, 0x6e, 0x74, 0x69, 0x61, 0x6c, 0x2f, 0x64, 0x65, 0x6e,
  0x73, 0x65, 0x5f, 0x32, 0x2f, 0x52, 0x65, 0x6c, 0x75, 0x3b, 0x73, 0x65,
  0x71, 0x75, 0x65, 0x6e, 0x74, 0x69, 0x61, 0x6c, 0x2f, 0x64, 0x65, 0x6e,
  0x73, 0x65, 0x5f, 0x32, 0x2f, 0x42, 0x69, 0x61, 0x73, 0x41, 0x64, 0x64,
  0x00, 0x00, 0x00, 0x00, 0x02, 0x00, 0x00, 0x00, 0x01, 0x00, 0x00, 0x00,
  0x0a, 0x00, 0x00, 0x00, 0xa4, 0xfc, 0xff, 0xff, 0x14, 0x00, 0x00, 0x00,
  0x1c, 0x00, 0x00, 0x00, 0x1c, 0x00, 0x00, 0x00, 0x0c, 0x00, 0x00, 0x00,
  0x68, 0x00, 0x00, 0x00, 0x02, 0x00, 0x00, 0x00, 0xff, 0xff, 0xff, 0xff,
  0x32, 0x00, 0x00, 0x00, 0x90, 0xfc, 0xff, 0xff, 0x4c, 0x00, 0x00, 0x00,
  0x73, 0x65, 0x71, 0x75, 0x65, 0x6e, 0x74, 0x69, 0x61, 0x6c, 0x2f, 0x64,
  0x65, 0x6e, 0x73, 0x65, 0x5f, 0x31, 0x2f, 0x4d, 0x61, 0x74, 0x4d, 0x75,
  0x6c, 0x3b, 0x73, 0x65, 0x71, 0x75, 0x65, 0x6e, 0x74, 0x69, 0x61, 0x6c,
  0x2f, 0x64, 0x65, 0x6e, 0x73, 0x65, 0x5f, 0x31, 0x2f, 0x52, 0x65, 0x6c,
  0x75, 0x3b, 0x73, 0x65, 0x71, 0x75, 0x65, 0x6e, 0x74, 0x69, 0x61, 0x6c,
  0x2f, 0x64, 0x65, 0x6e, 0x73, 0x65, 0x5f, 0x31, 0x2f, 0x42, 0x69, 0x61,
  0x73, 0x41, 0x64, 0x64, 0x00, 0x00, 0x00, 0x00, 0x02, 0x00, 0x00, 0x00,
  0x01, 0x00, 0x00, 0x00, 0x32, 0x00, 0x00, 0x00, 0x2c, 0xfd, 0xff, 0xff,
  0x14, 0x00, 0x00, 0x00, 0x1c, 0x00, 0x00, 0x00, 0x1c, 0x00, 0x00, 0x00,
  0x0b, 0x00, 0x00, 0x00, 0x60, 0x00, 0x00, 0x00, 0x02, 0x00, 0x00, 0x00,
  0xff, 0xff, 0xff, 0xff, 0x0a, 0x00, 0x00, 0x00, 0x18, 0xfd, 0xff, 0xff,
  0x46, 0x00, 0x00, 0x00, 0x73, 0x65, 0x71, 0x75, 0x65, 0x6e, 0x74, 0x69,
  0x61, 0x6c, 0x2f, 0x64, 0x65, 0x6e, 0x73, 0x65, 0x2f, 0x4d, 0x61, 0x74,
  0x4d, 0x75, 0x6c, 0x3b, 0x73, 0x65, 0x71, 0x75, 0x65, 0x6e, 0x74, 0x69,
  0x61, 0x6c, 0x2f, 0x64, 0x65, 0x6e, 0x73, 0x65, 0x2f, 0x52, 0x65, 0x6c,
  0x75, 0x3b, 0x73, 0x65, 0x71, 0x75, 0x65, 0x6e, 0x74, 0x69, 0x61, 0x6c,
  0x2f, 0x64, 0x65, 0x6e, 0x73, 0x65, 0x2f, 0x42, 0x69, 0x61, 0x73, 0x41,
  0x64, 0x64, 0x00, 0x00, 0x02, 0x00, 0x00, 0x00, 0x01, 0x00, 0x00, 0x00,
  0x0a, 0x00, 0x00, 0x00, 0xee, 0xfd, 0xff, 0xff, 0x10, 0x00, 0x00, 0x00,
  0x10, 0x00, 0x00, 0x00, 0x0a, 0x00, 0x00, 0x00, 0x44, 0x00, 0x00, 0x00,
  0x88, 0xfd, 0xff, 0xff, 0x34, 0x00, 0x00, 0x00, 0x73, 0x65, 0x71, 0x75,
  0x65, 0x6e, 0x74, 0x69, 0x61, 0x6c, 0x2f, 0x64, 0x65, 0x6e, 0x73, 0x65,
  0x5f, 0x34, 0x2f, 0x4d, 0x61, 0x74, 0x4d, 0x75, 0x6c, 0x3b, 0x73, 0x65,
  0x71, 0x75, 0x65, 0x6e, 0x74, 0x69, 0x61, 0x6c, 0x2f, 0x64, 0x65, 0x6e,
  0x73, 0x65, 0x5f, 0x34, 0x2f, 0x42, 0x69, 0x61, 0x73, 0x41, 0x64, 0x64,
  0x00, 0x00, 0x00, 0x00, 0x01, 0x00, 0x00, 0x00, 0x02, 0x00, 0x00, 0x00,
  0x4a, 0xfe, 0xff, 0xff, 0x10, 0x00, 0x00, 0x00, 0x10, 0x00, 0x00, 0x00,
  0x09, 0x00, 0x00, 0x00, 0x28, 0x00, 0x00, 0x00, 0xe4, 0xfd, 0xff, 0xff,
  0x19, 0x00, 0x00, 0x00, 0x73, 0x65, 0x71, 0x75, 0x65, 0x6e, 0x74, 0x69,
  0x61, 0x6c, 0x2f, 0x64, 0x65, 0x6e, 0x73, 0x65, 0x5f, 0x34, 0x2f, 0x4d,
  0x61, 0x74, 0x4d, 0x75, 0x6c, 0x00, 0x00, 0x00, 0x02, 0x00, 0x00, 0x00,
  0x02, 0x00, 0x00, 0x00, 0x01, 0x00, 0x00, 0x00, 0x8e, 0xfe, 0xff, 0xff,
  0x10, 0x00, 0x00, 0x00, 0x10, 0x00, 0x00, 0x00, 0x08, 0x00, 0x00, 0x00,
  0x28, 0x00, 0x00, 0x00, 0x28, 0xfe, 0xff, 0xff, 0x19, 0x00, 0x00, 0x00,
  0x73, 0x65, 0x71, 0x75, 0x65, 0x6e, 0x74, 0x69, 0x61, 0x6c, 0x2f, 0x64,
  0x65, 0x6e, 0x73, 0x65, 0x5f, 0x33, 0x2f, 0x4d, 0x61, 0x74, 0x4d, 0x75,
  0x6c, 0x00, 0x00, 0x00, 0x02, 0x00, 0x00, 0x00, 0x01, 0x00, 0x00, 0x00,
  0x0a, 0x00, 0x00, 0x00, 0xd2, 0xfe, 0xff, 0xff, 0x10, 0x00, 0x00, 0x00,
  0x10, 0x00, 0x00, 0x00, 0x07, 0x00, 0x00, 0x00, 0x28, 0x00, 0x00, 0x00,
  0x6c, 0xfe, 0xff, 0xff, 0x19, 0x00, 0x00, 0x00, 0x73, 0x65, 0x71, 0x75,
  0x65, 0x6e, 0x74, 0x69, 0x61, 0x6c, 0x2f, 0x64, 0x65, 0x6e, 0x73, 0x65,
  0x5f, 0x32, 0x2f, 0x4d, 0x61, 0x74, 0x4d, 0x75, 0x6c, 0x00, 0x00, 0x00,
  0x02, 0x00, 0x00, 0x00, 0x0a, 0x00, 0x00, 0x00, 0x32, 0x00, 0x00, 0x00,
  0x16, 0xff, 0xff, 0xff, 0x10, 0x00, 0x00, 0x00, 0x10, 0x00, 0x00, 0x00,
  0x06, 0x00, 0x00, 0x00, 0x28, 0x00, 0x00, 0x00, 0xb0, 0xfe, 0xff, 0xff,
  0x19, 0x00, 0x00, 0x00, 0x73, 0x65, 0x71, 0x75, 0x65, 0x6e, 0x74, 0x69,
  0x61, 0x6c, 0x2f, 0x64, 0x65, 0x6e, 0x73, 0x65, 0x5f, 0x31, 0x2f, 0x4d,
  0x61, 0x74, 0x4d, 0x75, 0x6c, 0x00, 0x00, 0x00, 0x02, 0x00, 0x00, 0x00,
  0x32, 0x00, 0x00, 0x00, 0x0a, 0x00, 0x00, 0x00, 0x5a, 0xff, 0xff, 0xff,
  0x10, 0x00, 0x00, 0x00, 0x10, 0x00, 0x00, 0x00, 0x05, 0x00, 0x00, 0x00,
  0x24, 0x00, 0x00, 0x00, 0xf4, 0xfe, 0xff, 0xff, 0x17, 0x00, 0x00, 0x00,
  0x73, 0x65, 0x71, 0x75, 0x65, 0x6e, 0x74, 0x69, 0x61, 0x6c, 0x2f, 0x64,
  0x65, 0x6e, 0x73, 0x65, 0x2f, 0x4d, 0x61, 0x74, 0x4d, 0x75, 0x6c, 0x00,
  0x02, 0x00, 0x00, 0x00, 0x0a, 0x00, 0x00, 0x00, 0x7a, 0x00, 0x00, 0x00,
  0x9a, 0xff, 0xff, 0xff, 0x10, 0x00, 0x00, 0x00, 0x10, 0x00, 0x00, 0x00,
  0x04, 0x00, 0x00, 0x00, 0x18, 0x00, 0x00, 0x00, 0x34, 0xff, 0xff, 0xff,
  0x0a, 0x00, 0x00, 0x00, 0x64, 0x65, 0x6e, 0x73, 0x65, 0x2f, 0x62, 0x69,
  0x61, 0x73, 0x00, 0x00, 0x01, 0x00, 0x00, 0x00, 0x0a, 0x00, 0x00, 0x00,
  0xca, 0xff, 0xff, 0xff, 0x10, 0x00, 0x00, 0x00, 0x10, 0x00, 0x00, 0x00,
  0x03, 0x00, 0x00, 0x00, 0x1c, 0x00, 0x00, 0x00, 0x64, 0xff, 0xff, 0xff,
  0x0c, 0x00, 0x00, 0x00, 0x64, 0x65, 0x6e, 0x73, 0x65, 0x5f, 0x31, 0x2f,
  0x62, 0x69, 0x61, 0x73, 0x00, 0x00, 0x00, 0x00, 0x01, 0x00, 0x00, 0x00,
  0x32, 0x00, 0x00, 0x00, 0x00, 0x00, 0x0e, 0x00, 0x14, 0x00, 0x10, 0x00,
  0x00, 0x00, 0x0c, 0x00, 0x08, 0x00, 0x04, 0x00, 0x0e, 0x00, 0x00, 0x00,
  0x10, 0x00, 0x00, 0x00, 0x10, 0x00, 0x00, 0x00, 0x02, 0x00, 0x00, 0x00,
  0x1c, 0x00, 0x00, 0x00, 0xa8, 0xff, 0xff, 0xff, 0x0c, 0x00, 0x00, 0x00,
  0x64, 0x65, 0x6e, 0x73, 0x65, 0x5f, 0x32, 0x2f, 0x62, 0x69, 0x61, 0x73,
  0x00, 0x00, 0x00, 0x00, 0x01, 0x00, 0x00, 0x00, 0x0a, 0x00, 0x00, 0x00,
  0x14, 0x00, 0x18, 0x00, 0x14, 0x00, 0x00, 0x00, 0x10, 0x00, 0x0c, 0x00,
  0x08, 0x00, 0x00, 0x00, 0x00, 0x00, 0x04, 0x00, 0x14, 0x00, 0x00, 0x00,
  0x14, 0x00, 0x00, 0x00, 0x20, 0x00, 0x00, 0x00, 0x20, 0x00, 0x00, 0x00,
  0x01, 0x00, 0x00, 0x00, 0x3c, 0x00, 0x00, 0x00, 0x02, 0x00, 0x00, 0x00,
  0xff, 0xff, 0xff, 0xff, 0x7a, 0x00, 0x00, 0x00, 0x04, 0x00, 0x04, 0x00,
  0x04, 0x00, 0x00, 0x00, 0x1d, 0x00, 0x00, 0x00, 0x73, 0x65, 0x72, 0x76,
  0x69, 0x6e, 0x67, 0x5f, 0x64, 0x65, 0x66, 0x61, 0x75, 0x6c, 0x74, 0x5f,
  0x64, 0x65, 0x6e, 0x73, 0x65, 0x5f, 0x69, 0x6e, 0x70, 0x75, 0x74, 0x3a,
  0x30, 0x00, 0x00, 0x00, 0x02, 0x00, 0x00, 0x00, 0x01, 0x00, 0x00, 0x00,
  0x7a, 0x00, 0x00, 0x00, 0x02, 0x00, 0x00, 0x00, 0x20, 0x00, 0x00, 0x00,
  0x04, 0x00, 0x00, 0x00, 0xf4, 0xff, 0xff, 0xff, 0x19, 0x00, 0x00, 0x00,
  0x00, 0x00, 0x00, 0x19, 0x0c, 0x00, 0x0c, 0x00, 0x0b, 0x00, 0x00, 0x00,
  0x00, 0x00, 0x04, 0x00, 0x0c, 0x00, 0x00, 0x00, 0x09, 0x00, 0x00, 0x00,
  0x00, 0x00, 0x00, 0x09
};
unsigned int model_tflite_len = 11692;
